0
0
11111111
0
0
1
0
0
0
0
0
0
11111111
11111110
11111110
0
0
0
0
0
0
0
0
1
0
11111111
0
0
0
0
0
0
0
0
100
1010
101
1000
111
11111110
1
11111110
100
11111100
11111101
11111011
10
1000
1001
100
101
110
0
11111111
0
0
0
0
0
11111100
11111101
10
11111011
10
1001
10000
10110
10001
10000
10001
11001
10011
1101
1111
11010
11001
10000
111
11
1010
111
111
0
0
0
0
0
0
1
110
1100
10011
1111
10001
10000
1101
10110
10011
1110
10011
1101
111
1011
101
10001
1110
1101
1
1
11111011
111
1
11111111
0
11111011
11111100
110
1001
10111
11000
1110
10000
1101
1000
10
11
1100
111
1110
1011
1
1101
10011
10110
1111
1000
1001
11111100
11111001
11111100
0
0
10
100
1
11110100
11111000
11111011
11111101
0
0
11
0
0
0
1
1001
1
11111111
11111101
11111110
1101
10000
11110
10000
0
1
100
0
11
11111100
11111110
11111110
11110110
11111011
11111110
0
0
11111011
11111111
1
11111100
11111010
11111101
11111010
11110101
0
100
11
1
100
10000
10101
111
11111011
11111100
11111111
11111010
11111011
11110110
11
1
0
10
1
11111111
11111110
11111101
11111110
11111100
11111100
11110110
11110110
11111100
0
1
1
0
1
11111101
111
10100
0
11111111
11111111
0
11111110
11111101
110
0
0
11111100
11111111
11111111
11111101
11111011
11111001
11111011
11111010
11110111
11110100
11111100
11111111
0
11111110
11
1000
101
1111
11011
1
0
11111000
11110101
100
0
0
10
11111110
11111011
11111111
0
11111110
0
11111010
11111001
11111110
0
11111101
11111001
0
0
1
11111110
0
110
1100
11010
1101
11111000
11111001
11111001
11110110
11
10
1
0
11111011
100
1000
1010
11
0
1
10
11111111
11111000
11111101
11110111
11111011
0
0
101
111
10010
1111
1111
101
11111000
101
11110011
101
11111101
10
11111101
11111110
111
1010
1000
1000
1000
10
10
11111100
11111000
11110111
11111011
0
11111010
0
0
11
1010
10010
100
110
11111010
11110001
11101111
11111001
0
11111110
11111100
0
1
1
1000
1100
10000
1000
11
11111000
11111000
11111100
11111110
10
0
0
0
11
1100
1111
1101
11111110
11
11110111
11110010
11111100
11110101
11111111
11111000
11111001
11111010
1
111
1100
1101
1000
110
11111010
11111010
11111111
0
110
110
0
111
1001
1101
1101
1011
110
11111010
11111000
11111010
11111100
11111100
1
11111001
11110111
11111111
0
110
1101
1101
1101
100
11111011
11111111
0
11111111
1
11
11111110
111
100
1001
1110
111
11
11111001
11111111
1010
11111101
101
11111111
11111000
0
0
110
1
110
1010
1011
11111111
11111001
11111111
11111100
11111011
11
100
11111111
100
1
11
101
0
100
11111011
101
111
11111111
11111110
0
0
11111110
11111101
1
10
11
0
11
11
1
11111111
11111100
11111110
101
110
111
110
10
101
1011
101
0
0
100
11111100
11
110
0
1
11111111
11111101
0
11111111
0
11111101
1
0
11111111
0
11111111
11111110
10
110
0
100
111
11
11111100
0
11111010
11110101
10
11110111
110
100
100
10
11
101
0
11111101
11111111
11
111
10
0
10
0
11111110
0
1
11111101
11
111
1100
1
11110101
1111
111
11111010
11111110
0
11111011
101
11111110
11111111
100
11111111
11111110
11111111
0
11
0
11
0
11111110
11111100
11111101
0
0
11111110
100
101
0
1100
110
1
11111010
11111110
101
1010
111
11
11111110
101
0
0
10
10
0
0
110
11
0
111
101
1011
110
111
110
11111100
11111010
1101
10
11
11111111
11111101
0
11111111
0
101
0
1000
1011
110
1000
110
1011
110
111
11
1000
1000
1011
100
100
1011
1100
11111101
10
1
0
1
1
1101
11111101
11111100
11111100
11111111
11111111
100
11
100
1000
11
1000
1
1000
1001
1011
1000
1000
100
1010
1001
100
11111101
0
1001
11111111
0
1
1011
101
11111110
11111110
11111100
11111110
10
10
100
101
110
111
11
101
1101
10000
10001
1011
110
1
0
1
11111110
11
1101
0
1
1
11111011
10
11110111
11110111
11111100
0
100
110
10
111
1001
100
1011
11
1010
100
1111
1100
111
11111110
110
11111011
11111100
11
1000
0
0
0
11111101
11111011
11111110
11111100
11
10
101
110
10
11111011
100
0
11111100
11111111
11111110
111
1001
10
1
11111011
10
1001
10
11111101
101
0
0
1
1
0
11110111
11110110
11101100
11111000
11111010
11101101
11110111
11110111
11111010
11110111
11110000
11111011
11111100
1
11111010
11111000
11111000
11111100
11111101
11111000
10
11111101
0
11111111
0
0
0
1
11111100
11111001
11111000
11110111
11110011
11110111
11111000
11110110
11110111
11110110
11101010
11101111
11101110
11101011
11101010
11110011
11111001
11111101
10
111
1
0
1
0
