0
0
0
11111111
11111111
0
0
11111111
11111111
0
0
1
0
0
0
0
0
0
0
1
0
0
0
0
0
0
0
11111111
0
0
0
1
11111110
11111110
11110011
11110001
11110110
11110001
11110010
11110111
11110011
11110101
11
11110100
11110110
11110111
11111011
11110010
11110100
11111000
11110111
11110111
0
0
0
0
0
0
11111111
11111101
11111100
11111010
11111101
11111000
11110100
11100111
11100100
11101000
11100110
11100010
11101010
11110100
11110101
11111001
11111100
11111110
11111111
11111111
11111101
11110010
11110001
11111000
0
0
11111111
11111111
11111111
11110111
11110101
11111010
11110100
11101011
11101100
11101101
11110100
11110001
11100100
11011110
11011110
11100000
11101110
11111011
11111000
11111000
11111010
10
100
100
11111011
11111111
11111100
11111111
0
0
11111111
11111010
11111100
0
11111100
0
11111111
11111010
11110010
11110110
11101110
11101110
11101010
11101111
11111010
11111101
11110011
11111100
0
0
101
100
110
11
11111010
0
1
0
11110111
11111000
11111000
1000
11111100
11111111
110
0
11111100
11111101
11111000
11110110
11110101
11110110
11110111
11111001
11111110
11111111
11111110
11111100
0
11111100
0
11
11110000
11111110
0
11111110
11111111
1000
0
110
100
111
1
11111111
11111111
0
11111110
11111101
11111101
11111001
11111111
10
11
10
11111110
0
11111010
11111000
11111011
11111111
11111000
11110111
10
10
110
1011
11
11111110
100
100
11
1
0
0
11111100
11111101
11111011
0
1
100
100
1000
1
11111111
11111100
0
11111001
11111001
11111111
11110110
11111001
1
1
101
111
100
11
11
100
1
0
11111111
11111010
11111000
11111100
11111110
11111101
11
11
100
1
10
11111010
0
11111111
0
11111101
11111001
100
1010
11111011
100
1000
11
11111110
0
10
11
11
0
11111110
11111011
11111000
11110111
11111101
110
100
0
0
100
0
10
11111111
11110111
11110101
11111111
101
1001
11111111
101
101
1
0
11
11111110
11
11111111
11111100
11111110
11110101
11110101
11111100
11
11
1
1
11111111
100
11111111
11111100
11110110
11111111
11110110
11111101
110
11111110
111
11
1
101
0
110
11
11111111
0
1
11111110
11111010
11111010
0
111
10
0
11
1
11111100
11111101
11111010
11110011
11110101
11111110
11
11
1000
1001
101
11
100
1
1
1
11111110
1
10
11111100
11110001
11110100
0
110
10
0
1
11111101
11111110
0
11110000
11110111
11111100
101
110
11111110
11111111
11
0
1000
10
110
11
110
11
1001
11
11110100
11101001
11110011
11111100
100
101
10
0
0
0
0
11110111
11111111
101
1001
11111111
1
0
111
11111111
100
1000
101
11
10
1001
111
0
11110111
11110111
11110111
11111100
101
101
110
1000
111
1
1
0
1
111
11111111
0
100
11111111
11111111
1
1
11
111
10
11
11
10
11111101
11110101
11110110
11111100
1
100
1001
10
11
1000
10
1000
10
11111100
11111111
11111011
11110111
101
11111101
0
11
100
11111110
111
1001
11
1
1
11111010
11111001
11111001
11111110
10
111
1100
101
100
1001
110
11
111
1
11110101
11111010
10
11111111
11111010
0
110
1001
0
101
1
10
1
11111111
11111011
11110101
11111001
1
10
111
111
1010
1
0
111
0
11111100
11111101
101
100
111
110
11111100
1
11
1
1
11
10
11111101
11111101
11110010
11110000
11100111
11110001
0
0
100
0
11111110
11111110
11111000
11111101
11111001
11110111
11111101
11
1100
11110011
11111111
111
11111111
11
11
0
0
0
11111101
11111011
11110011
11110000
11101111
11111010
100
1
0
11111110
11111000
11111001
11110101
11101111
11100111
11100110
11111000
0
11110011
11111101
0
11111100
1001
11111011
11111000
0
0
11111100
11111000
11110101
11110111
11110110
11110111
0
101
11111111
10
11111111
11111010
11111101
11111000
11110100
11110001
11100111
11111001
11111001
11111111
11111101
11111111
11111111
11
11110111
0
11
11110011
11110111
11111011
11110110
11111011
11111010
11111100
11111111
0
11111111
101
1
11
1
11111110
0
0
11110110
10
11110101
11110111
0
11111110
11111110
11111111
11110111
11111010
11111001
11111010
11111010
100
0
11111110
11111011
0
0
11
11111111
0
11
111
10
11111010
11111010
11111110
11110011
1
11111010
11110111
1
0
0
11110101
11111100
11111011
11111011
10
1
11111111
11111111
11111110
11111011
11111001
11111010
11111111
11111110
11111100
11111111
1
10
10
1
11111100
0
101
11111010
11111001
11111111
0
11111111
111
11
10
0
11111101
11111111
11111100
11111101
11111100
11111000
11110101
11111000
11111000
11111101
11111110
11
11111111
100
101
1001
110
1
11111011
11111101
11111110
0
0
0
11111101
0
11111010
11111001
11111000
11111001
11111111
1
11111110
0
11111101
11111100
10
10
110
0
0
11111101
100
1001
1
11111110
1
100
11111111
0
11111111
0
11111111
1
1
11111101
0
100
10
101
11111100
11111101
11110101
11111001
11
100
111
11111101
11111110
11111110
100
11
0
11
0
10
0
0
11111111
0
11111111
0
101
1011
11111101
11
101
1000
100
0
10
1000
111
0
1010
10001
11111101
11111110
11
110
0
110
0
0
0
0
