0
0
0
0
0
11111111
0
0
0
1
11111111
0
0
0
0
0
0
0
0
11111111
0
0
0
11111111
0
11111111
0
0
0
0
11111111
0
11111110
11111110
0
0
110
111
1111
11111100
11111100
11110111
11110111
11110110
11110110
11111011
100
1011
1001
10
101
100
0
0
11111111
11111111
11111111
0
0
11111100
11111001
11111100
11111001
11111011
10000
1000
1001
110
110
0
110
101
0
100
11
0
11111001
1101
0
1
0
100
1
0
0
0
11111010
11111001
11111000
110
11
11111011
0
110
11
0
0
11111011
11111000
11111010
11111010
11110110
11111000
11111010
11110111
11111000
0
11111110
11111100
11111011
111
0
0
11111111
11111110
11110111
11
101
101
100
101
11
101
11111111
1
1
1
11111110
0
0
11111101
1
111
101
11
100
11
0
11110111
10
11111111
11111111
0
11111001
11
11111110
11111101
0
11
11111110
1
11111110
11111111
11111111
1
0
11111100
10
10
10
0
0
0
100
110
101
0
11
0
1
1
110
11
11111010
11111010
11111011
11111001
11111101
11110111
11111101
11111011
11111001
11111100
11111100
11111010
11111001
11111001
11111011
0
11111101
11111010
10
11
10
11
1
1
10
0
11111001
11111110
11111110
11111110
11111001
11111101
11111011
11110111
1
11111011
11111111
0
11111101
11111100
11111011
11110111
11111001
0
11111010
11
11111100
101
11111011
1001
100
1
111
11111110
0
11111010
11111010
11111110
11111000
11111010
11111101
11111100
11111011
11110111
0
11111111
0
11111010
11111100
11111000
11111110
11111101
0
11111110
0
1
11111111
100
11111010
11111110
11110111
11
11111111
1
11111010
11110111
11111100
11111010
11111100
11111010
11111001
11111110
11111111
0
11111100
11111010
11111010
11111100
11111111
10
0
11111001
0
11110101
0
11111100
100
11111111
11111010
11101110
11111111
1
1
11111111
11111111
11111110
11111110
11111011
11111010
11111101
11111100
11110010
11101100
11110110
11111110
10
11111111
11111110
11111111
100
11111010
11111111
100
0
11111100
0
11
11110101
11111100
11110101
100
0
0
11
11111110
11111101
11111000
11111101
11110111
11101101
11011111
11110100
11111011
11111101
0
11111111
0
11111110
10
11111101
100
11111001
11110011
0
11111011
11111010
11111001
11111101
10
11111111
101
110
11111111
0
11
11
11111011
11101100
11101010
11111000
11111010
11111011
11111100
11111110
11111111
10
11111100
0
111
11110101
11111000
0
11111100
11111100
11111100
11111110
100
100
11
0
0
11
101
1
11111100
11110111
11111011
11111011
11111111
11111100
11111011
11110111
11111000
0
1
111
11111101
11110110
1000
100
11111010
11111010
11111111
0
111
0
1000
10
10
0
100
10
11111100
11111001
11111111
11
10
11111100
11111011
11111010
11110100
110
11111100
11
1000
0
1010
100
11111011
0
100
0
100
0
11
11
111
1000
111
1
0
11111110
11111110
101
110
11111010
11111010
11110111
11111001
100
10
101
0
111
100
1
11111100
11111110
11111011
11111110
10
11111111
11
1001
100
110
111
1
10
101
1000
1101
1000
10
10
11111111
111
110
111
1000
110
10101
100
0
11111011
0
11110101
1
0
0
100
1001
10
11
1
11111011
0
110
1010
1011
101
111
10
10
1111
11
10
11111100
1000
10
11111011
11111000
11111011
11111111
1
1
0
10
110
111
0
11111111
11111110
0
0
10
1011
1110
1001
1010
1010
1001
1100
110
1100
1000
100
11
101
11111111
11111100
11111100
10
11
11111110
0
111
11
0
100
11111111
11111001
11111101
10
1000
1001
1111
1000
1000
1000
1000
1001
1001
11
11111111
10110
11
0
11111111
0
1000
100
0
11
10
11
0
100
11111111
11111100
11110111
11111001
0
111
1000
1001
100
10
11
101
11
10
11
1101
0
0
110
11111011
10
1
10
11111100
0
1
11111101
11111101
0
0
11111100
11110111
11111110
11111110
0
0
11111111
0
11
1001
101
11111110
11
0
101
0
0
1010
0
111
11111111
0
0
1
1
100
11
110
0
11110111
11111001
11110110
11110100
11110110
0
11111101
111
101
11111100
100
11111101
11111110
101
11111111
0
0
0
110
11111111
11111110
0
11111111
101
10
100
11111111
11111001
11111110
11111011
11110110
11110100
11111010
11111110
1
11
0
11111100
100
10
1
0
0
0
11111010
11111001
11111101
11111101
11111101
11111111
11111110
11111001
11111101
11111001
11101100
11101110
11111000
10
0
11110011
11110110
11110011
11111001
11111010
11111111
11111001
11110111
1001
101
0
0
0
11111101
10
11110110
11110101
11111101
0
11110011
11101000
11110101
0
11111011
11110110
11111011
1
0
11111010
11101111
11100001
11100100
11101111
11110111
11111101
11110111
101
111
0
0
0
0
0
11111010
11111110
11111001
11111011
11110011
11111100
11110100
11110010
11111101
11111100
11110100
11110110
11110111
11101100
11101000
11100101
11100100
11101010
11110100
11111101
110
0
0
1
0
0
0
0
1
1
11111010
11111100
11111000
11110100
11110111
11110100
11110101
11110000
11101000
11101111
11111000
11111101
11111101
11110110
11110101
11110110
11111010
10
0
11111111
0
0
