1
0
0
1
0
0
0
0
0
0
0
0
11111111
0
0
1
0
0
0
0
11111111
0
0
11111111
0
0
0
11111111
0
0
0
0
1
1
100
1000
1000
0
0
11110111
11111011
11111111
11111110
110
1101
1100
1000
10
100
10
101
10
0
1
0
0
1
0
1
100
110
11111111
11111111
100
1010
1100
101
1000
10011
11001
11011
11001
11001
10001
1000
11111111
10
100
0
0
1000
111
0
11111111
11111111
1
10
11111011
11111000
100
1110
11
1001
1000
11111100
0
111
100
11111101
10
111
0
11111000
11110001
11111001
11111000
11111110
11
101
1
1
11111111
11111111
11111110
110
0
1010
1011
1100
100
101
0
10
1
0
101
1
1
1
11111110
11111111
11111110
11111100
11111011
11111110
11111101
101
0
0
11111110
11111111
1
110
11111101
10001
1011
100
11111111
1
11
101
1
0
11111110
0
10
11111111
11111111
11111100
10
11111110
10
11111101
0
11111111
11110111
11111101
11111110
0
111
0
101
11
0
11111110
11111101
1
10
100
11
100
110
101
0
11111100
11111101
0
1
1
11111110
11
11111100
11110100
11111100
0
101
0
1001
11111100
10
1001
101
1
10
110
101
10
100
110
11
101
11111111
1
10
0
110
1
11111111
0
0
11111010
1
1
1
100
1001
11110111
11111101
10
110
100
1
101
101
111
1
10
0
11111111
100
1001
110
10
10
0
10
10
11110111
11101101
11110000
11111101
11110111
1
101
11
11111100
110
1
1000
100
100
11111110
11111000
11101111
11101001
11101000
11110010
1
1001
1001
111
11
1
11111111
0
11111101
11101110
11110110
11111010
11111010
0
10
1
11110011
11111100
10
11111101
11110000
11101010
11011010
11011101
11011100
11011101
11100111
11110111
1
111
1001
100
0
0
10
11111110
11110110
11100010
101
111
1000
0
101
11111100
11110111
11110111
11110010
11100101
11011000
11001101
11011110
11101100
11111000
11110111
11110101
11111100
11
10
101
0
10
0
11111111
11111011
11111110
11111001
0
101
1000
1
11111000
11111100
11111000
11110010
11101000
11011101
11100011
11111001
11
11
100
11111111
11111101
11111111
0
1
11111100
1
0
1
11111101
11111001
11111111
11
100
11111001
11111101
11111110
11111001
10
11111000
11110101
11111010
11111100
11111110
1001
1010
10
0
11111101
0
1
11111100
0
1
10
11111110
0
11111101
11111011
11111111
11111110
11111010
11111001
11111100
11111001
11111100
0
1
11111111
1
110
1101
1001
110
1
0
11111100
11111110
0
11111111
1
1
11
0
11111111
1
11111101
11111001
1
11111100
111
0
11111000
0
100
0
11111011
111
111
0
10
11111111
11111011
11111110
11111011
0
11111100
10
10
11111111
0
11111110
11111010
11111111
11111011
0
11111011
11111111
1000
100
0
110
111
1
11111110
10
0
11111111
11111110
11111011
11111000
0
11111100
0
1
11111111
11
0
11111111
1
11111101
0
1
11111100
0
11110101
0
1100
0
0
11
11111100
11111000
11111101
11111101
11111001
1
0
11111100
0
11111111
0
0
0
11111110
11111101
11111100
11111100
11111100
11
100
11111101
11111111
11111001
0
100
1
11111110
0
100
1
11111101
11
10
1000
101
11111110
11111010
11111111
11111111
11111110
11111110
0
0
11111111
0
11111100
111
0
11111110
11111010
10
11111110
1010
10
11
11111111
1001
11
0
10
110
11111111
11111111
11111011
11111011
11111101
10
0
10
10
11
0
0
11111111
0
0
0
11111010
0
11111101
11
0
11111011
11111011
110
10
11111111
100
11111111
0
11111111
0
0
11111110
11111111
110
10
11111111
0
110
0
1
0
0
0
11111101
1
10
11111000
0
1000
0
1
11
100
100
11111111
11111111
0
11111110
11111001
11111011
0
100
1
11111111
11
110
0
101
0
11111100
110
1011
0
110
111
11111110
0
10001
0
11
0
101
10
1
1
1
11111101
11111010
11111101
0
1
1
1
0
0
1
0
11111100
0
1001
0
11111011
1000
0
1
11
11111011
11111110
101
10
100
11
10
11111111
0
0
0
11111111
1
0
11111111
0
0
11111111
0
101
111
100
11
0
0
0
0
1
101
0
0
101
0
111
0
1
0
11111111
0
10
11111011
11111010
11111111
0
11111101
11111010
1
101
11111111
100
101
110
0
0
0
11111110
11111101
1000
0
1
11
10
110
0
0
111
101
110
11111010
11111001
100
11
11111001
11111101
11110110
11111001
11110110
11111010
11111111
110
11111111
0
0
0
11111111
11111000
11111010
11110110
11111011
10
11111011
11
1000
110
0
0
11111110
111
100
11
11111010
11111001
11110100
11110110
11111100
11111101
0
0
0
0
0
0
1
0
0
11111011
11111101
11111101
0
11111100
11111100
11111000
11110110
11110100
11111010
101
11111111
11111100
11111000
11111101
11111010
11111001
100
0
0
0
0
