0
0
0
0
0
0
11111111
0
0
0
0
11111111
1
11
0
0
0
0
0
0
0
1
11111111
0
1
11111111
0
0
0
0
11111111
0
11
101
10
11
1001
10000
11010
1010
100
0
11111010
11110110
11110111
10
100
1001
1111
111
10
11
1
0
1
0
11111111
0
0
1
1
1100
10010
11000
11110
1100
1000
11111110
11111100
1
1001
111
0
0
0
1011
1100
10000
10001
1111
110
11111100
0
0
0
0
11111011
10
0
1110
1101
100
10
1000
10
101
11111011
11110011
11110110
11110100
11111110
0
11111101
10
11111110
11
11
0
11111100
1
1000
0
0
0
11111011
11111100
0
101
11111101
11
11110111
11110101
11111001
11110100
11110011
11110010
11101100
11110111
11111101
0
11111111
1
11111111
11111100
11111101
0
11111010
11110110
11111000
11111100
0
11111111
0
11111010
0
11
11111001
11111001
11111011
11111010
11111011
11110011
11111001
11110100
11110101
11111011
11111000
0
1
0
11111010
11111010
11111100
11
0
11111100
11110111
0
0
11111110
0
1
0
0
11111100
11
11111110
11111001
11111001
11111010
11111010
11111001
11111001
11111000
11111011
0
11111101
11111100
11111000
11111011
11111110
11111110
11111111
11110110
11111111
11111100
11
100
1001
11
11111111
0
1
11111101
11111101
11111001
11110110
11110111
11111000
11111010
11111110
11111101
11111110
0
11111011
11110111
11111100
11111011
11111111
1
11111101
0
100
11111100
10
11111100
110
0
10
1
11111101
11111101
11111000
11110111
11110111
11111001
11111011
11111011
11111111
1
11111100
11111111
11111001
11110110
11111001
10
11111010
11111010
11111000
11
0
11111001
0
11
100
11111111
11111111
0
11111100
100
11111111
11111011
11111110
11111100
10
11111111
100
10
11111111
11111011
11111110
11111100
11111111
0
11111010
11111011
11111011
11111010
11111111
101
0
11
11111000
0
0
110
111
101
1
0
11111111
1
11111101
0
0
0
0
11111010
11111010
11111100
11111000
11111000
11110111
11111100
11111001
1
11111011
11
101
101
11111110
11110111
11111101
111
1000
111
0
11111100
11111111
11
111
111
100
11
11
11
11111110
100
11111101
11111101
11110100
11111101
11110100
11110000
11101110
11110111
11
0
110
11111010
10
11
1
10
11111111
11111110
0
1000
1001
1100
100
101
1
11
111
111
100
11111111
11110110
11111010
11110111
11101100
11110100
11110110
0
11111100
100
11111100
111
111
100
1
11111000
11111011
11
11
111
110
1
11
101
1001
1100
1000
110
100
11110010
11110111
11101110
11110011
11110100
11110100
11
0
11111000
11111111
11
1010
0
11111111
11111010
10
110
100
110
10
11111101
11111110
100
1001
1010
1001
1000
0
11111101
11111010
11110011
11110100
11110001
11110110
10
1
0
11111101
100
11111111
11111100
11110110
11111100
100
1001
1100
1000
0
11111100
10
101
1100
1101
110
0
11111010
11111101
11111010
11101110
11110000
11110011
11111111
0
101
0
11111101
0
11111011
11111000
11111110
11111110
11
111
1101
111
11111111
11111111
11
111
1100
1000
10
11111111
11110111
11111011
11111100
11110010
11101101
11101101
11111100
11111111
100
100
0
10
11111100
11111010
11110101
11111011
11
1111
1011
1
11111110
11111111
1
111
111
100
11111111
11111010
11111110
11111000
11110101
11101110
11110110
11110110
11111011
11111000
10
0
1
110
11111111
11111000
11110101
11111000
11111100
11111110
0
11111111
11111010
11111111
100
1011
10
10
11111100
11111011
11110111
11111111
11111100
11110011
11110010
100
111
11111110
11111001
11111000
1
101
11111111
0
11111011
11110111
11111001
11110110
11111110
11111110
11111010
10
111
1001
0
11111110
0
11
11111001
11111100
11111001
11111011
11110010
11110111
0
0
11111011
11111100
11111011
11110101
11111001
0
11
11111001
11111011
11111010
11111010
11111001
11111100
11
1
11
0
11111010
1
11111110
0
11111011
11111110
10
0
11111010
11111100
11111111
11
11111000
11111111
11111011
11111111
11111111
11111110
0
0
11111110
11111011
11111011
11111100
11111110
11111101
1
11111000
11111111
11111101
11111101
11111100
11111010
110
11111011
11110111
101
0
0
0
11110010
11111101
11
11111010
11
11111101
11111101
11111110
1
11111010
11111000
11111001
11111101
0
1
11111110
11111110
1
11111101
0
0
11111111
11111110
11110010
1100
0
0
0
11110110
11111010
0
11111011
111
0
11111011
1
10
0
11111100
11111100
11111101
11111101
11111101
0
11111111
11111101
11111100
0
11111110
11111101
11111011
11110100
111
0
0
11111111
11111011
11110100
1001
1
11111111
11111010
11111010
11111111
11111011
11111001
11111000
11111011
11111111
0
0
1000
0
11111010
1
10
11111010
11111111
11101111
1010
0
11111111
1
0
0
100
11111111
11110111
11110111
11111011
0
11111110
11111011
11111100
11110001
11111010
11
1
100
1010
1010
11111101
11110011
11111001
11110110
11111011
11110111
110
0
0
0
0
0
100
11111001
11111000
10
11111010
11111101
100
11111000
11110011
11111111
11111001
11111000
11110111
11111001
11111100
11111001
11111011
11111000
11110110
11110001
11110100
100
0
11111111
0
1
1
0
0
10
11
11111111
11111011
11111110
11
0
0
11111011
11110111
11111001
111
100
11
11111111
11111110
1000
100
0
11111110
11111111
0
0
0
