11111111
0
1
1
1
0
0
0
0
0
1
1
0
0
0
11111111
0
11111111
1
11111111
0
0
0
1
0
0
1
0
0
0
11111111
0
0
11111110
11111011
11110111
11110100
11101101
11101111
11101100
11101100
11101011
0
0
11111101
11110001
11110000
11110001
11110010
11110101
11111011
11111100
11111111
0
0
0
1
0
11111100
11111100
11110110
11110101
11101101
11100100
11011010
11110111
11111011
11110101
11011101
11010110
11010101
11011100
11101001
11110010
11111011
11111010
11111101
11100000
11101011
11110010
11111010
10
11111111
11111111
0
0
10
11111100
0
11101010
11101110
11111110
11111101
11110001
11101110
11110010
11110010
11110011
11110010
11111011
11110010
11111110
0
11111111
11111010
11111101
11111010
11111100
11111011
0
11111010
1
1
11111111
0
10
11111010
0
100
11111100
11111101
11111011
11111100
11111101
11111100
11111001
11111011
100
1
100
10
0
0
0
0
1
1
100
1001
11111101
0
0
0
11111101
11111011
10
100
11111101
11111101
11111110
11110111
11111111
11111111
11111100
11110111
11111001
11111100
11111011
11111101
11111100
0
0
0
11111110
11111101
1
0
11111010
11111111
11111100
11
11110110
101
110
11111110
11111111
11
11111101
11111100
0
11111111
11111110
11111110
11111110
11111101
11111101
11111100
11111101
11111010
11111100
11111011
10
10
101
1000
11111101
0
11111011
0
11111100
110
11111110
0
1
11111110
0
1
11111111
11111100
11111011
11111100
0
11111100
11111110
11111110
11111011
11111010
11111110
11111101
11111100
11111111
1001
0
11111100
11111011
11110111
11111101
1
0
11
11
0
11111100
0
11111111
11111110
11111010
11111110
11111111
11111111
0
11111110
11111111
0
11111110
11111111
11111111
11111011
11111100
11111100
0
1110
11111111
11111110
11111101
1
11
10
11
0
1
11111111
0
11111101
11111010
11111110
11111010
11111000
11111000
11111011
11111010
11111101
11111111
100
11111011
0
11111011
1
100
11111100
0
0
0
11111011
111
11111110
101
11
11
11111110
11
11111100
11111011
11111010
11111011
11110111
11110110
11111000
11111101
11111110
1
0
10
1000
11111100
11110110
1
11111101
0
11111000
11
11111100
1001
111
11
110
110
0
10
1
0
110
111
11
11111110
11111111
11111110
11111011
11111100
11111101
11111101
0
0
11111111
111
0
0
11111000
11111000
11110111
0
0
0
10
100
0
1
11
1000
10011
10000
110
1
1
11111101
0
10
0
11111111
100
11110100
0
11
11
0
0
11110000
11110100
0
11111111
0
11
1
0
11111110
1011
10011
10001
1010
1000
0
11111111
11111110
10
1
1
100
100
11111100
110
100
0
111
111
11111001
11110011
10
10
110
1
11
0
1
1000
10000
1110
1100
1010
101
111
11111110
11111111
11111111
11
111
101
0
11111101
1
11111000
101
0
10
11110110
11111100
11111100
11111100
0
1
0
100
1010
10010
10011
10011
1010
1011
1010
10
0
11111010
11111110
11
1
110
1000
10
11111001
0
1
100
11111101
11111101
11110111
11111001
11111100
11111101
11111101
0
101
10000
10011
1111
1100
1000
1000
10
11111011
11110110
11111101
11111110
1
11111111
111
1
11111111
1
1001
0
11111111
11110011
11110111
11111100
11111010
11110101
11111011
11111101
11111110
1000
1001
1000
111
11
11111111
11111111
11111001
11111011
11111001
11111101
1
11111110
11111010
11111101
111
10
1000
11111110
0
11111110
11111101
0
11110110
11110010
11110001
11110100
11110101
11111001
11111111
11111111
10
0
11111110
11111010
11111011
11111110
11111110
11111001
11111001
11111000
11111011
11111010
11111000
110
11111001
1
1
10
100
0
11111000
11111000
11110001
11101111
11101010
11101111
11110100
11111010
101
11
11111111
11111111
0
11111011
11111100
11111010
11111101
11111011
11111101
11111011
100
0
101
11111110
0
10
11111010
11111110
0
0
11111100
11111010
11111011
11111000
0
11
1001
11
11
1
0
11111010
11111100
0
11111100
11111010
11111101
11111011
111
1
11111100
110
11
101
0
1000
11
1
0
11111101
11111110
11111110
11111101
0
0
100
0
11111110
11111011
11111101
1
11
11111110
11111000
0
11110100
0
10
10
11111010
1010
1011
10
100
11
0
11111111
11111101
11111111
11111101
0
0
0
0
1
11111100
10
10
11111001
11110110
11111011
11111010
100
11111111
11111110
0
11111111
11
1001
110
100
0
0
11
11111111
0
11111100
0
0
1
11
11
11111110
11111011
11111111
11111011
11111100
11111000
11111100
11111001
11111111
10
0
0
0
11
110
11111110
0
11111111
110
1
1
0
0
1
11111111
11111100
100
100
11111111
11111011
11111110
11110111
11111100
11111110
111
1000
11110100
11111001
11111111
0
0
110
11111001
11111001
11111001
0
0
0
11111011
0
11111110
11111010
11111000
11111001
11111111
0
1
11111111
1
11111101
11111110
10
101
1100
11111001
11111001
0
1
0
0
10
1001
11111010
11111101
11111100
11111110
1
11111100
11110110
11110111
11110001
11110100
11110111
11111001
11
11111111
11111110
11111111
11111110
11111000
11111001
1010
11111110
1
11111111
1
1
0
0
11111100
11110111
10
11111010
11110110
11110110
11110010
11111000
11110111
11101110
11110100
11111100
11111000
11110101
11111100
10
11111110
11111001
11111000
11111100
11111111
0
1
1
