1
0
0
0
0
0
0
0
11111111
0
1
0
1
0
11111111
0
0
0
0
0
0
1
0
1
0
1
0
0
0
11111111
0
0
1
11111111
11111100
11111100
11111101
11111100
11111101
11111100
11111000
11111010
11111001
11110011
11101111
11110101
0
11111101
11110111
11111011
11111000
11111001
11111111
0
0
0
0
0
11111111
11111001
11111001
1
110
0
1
11111000
11110001
11110100
11110110
11110111
11110100
11110010
11101101
11110101
11111101
11111100
11110111
11111000
11111010
11111100
1
11111101
0
0
1
0
11111110
11110110
11111010
111
11111101
11111000
11110101
11110011
11110101
11111100
11101110
11101000
11111100
11110110
11101101
0
0
11111111
11111101
1100
1001
11
101
10
110
0
0
0
11111100
11111101
1000
1011
1001
1000
11111100
11111010
11111000
11110111
11101011
11101100
11101101
11100111
11100101
11110000
11110010
11110001
11111100
0
11111111
1
0
101
11111000
11111101
1
0
11111011
11111010
11111110
111
11111111
11111011
1000
100
0
11111100
11111011
11110100
11111000
11111010
11110111
0
11111000
11110101
11111000
11111011
11111000
10
100
100
11110110
10
1
11111100
11111001
11110001
1
10
11110111
11111111
11111111
11111110
11111110
11111100
11111011
11111011
11111100
11111011
1
11
11111011
11111110
0
0
0
1
0
11111000
11111111
0
1
11111010
11111011
11111100
1
10
11111110
11111010
11111110
0
0
11111111
11111110
10
0
11111110
11111111
11
11111110
11111111
101
11111110
11111100
10
101
11111111
11111101
11111111
11111010
11110110
11111101
11110110
11111111
0
0
11
1
0
11111101
11
11111110
11111100
11111111
100
11111101
1
10
0
11111111
10
0
11111111
0
10
11111011
11111001
11111011
11111001
11111101
11110111
11111100
11111100
11111010
100
100
11111100
1
10
0
11111100
10
10
11111111
11111111
0
11111111
0
11111111
11111110
11111111
11111000
11110110
11111100
100
11111011
11111000
11110111
10
100
0
11111101
11111110
1
11111101
11111111
11111101
11111010
11110101
11111010
10
0
11111110
11111100
0
11111100
11111101
11111100
11111110
11111001
11
11111010
111
11111101
11110110
11110101
11110111
11110011
11111111
11111110
11111100
1
11111110
0
11111111
11111101
11111000
11111101
1
100
0
0
1
11111111
100
11111111
11111011
11111010
11111110
11110101
11111101
0
11111110
11111100
1
11110110
11110111
11111011
11111101
101
1
11
1
1
101
10
1010
1000
1
1
101
11111110
0
0
11111101
0
11111001
11111000
11110101
0
1
11111010
11111011
11111001
11111101
100
1001
101
0
0
1
101
1000
111
1110
1001
11
100
10
0
11
0
11111110
11111010
0
11111101
11110101
111
11
11110110
11110110
11111101
10
11111111
1000
100
110
11111111
11111110
111
1010
1001
1011
1001
111
11
111
1001
100
11111110
11111001
11110111
10
0
11111000
1000
101
11111011
11111011
11111110
11111010
11111100
11111111
0
0
1
11
111
100
111
1110
1000
1011
110
11
0
0
11
0
11111000
11111010
0
11
0
0
11111001
11111010
11111110
11111100
11111100
11111111
11111110
11111001
11111100
10
100
1
101
1000
1011
1011
101
11111111
10
11111111
11111000
11111100
11111110
11110011
11110111
110
0
0
11110100
1
101
11111011
11111001
11111010
11111000
11111001
11111110
11111100
11111011
0
11
1
111
0
11111110
11110011
11110110
11111010
11110110
0
11111111
0
11111110
1000
11111010
11111111
11110011
101
110
0
11111011
11110111
11110000
11101011
11101110
11111001
11111010
0
1
11111111
0
11110101
11101101
11101100
11110000
11111011
11110110
11110101
11111111
1
1011
111
11111100
11111000
11110101
110
11111111
11111101
0
11111010
11110001
11101101
11101111
11111001
11110111
11111000
11111110
11111011
11110101
11110000
11101110
11101011
11111011
11111110
11111000
11101110
11111011
0
0
11111100
0
1
11110111
11110000
11100100
11111110
0
0
11111001
11110101
11111001
11111011
11111010
11111011
11111001
11110101
11111100
11110110
11110110
11110000
11110110
11111010
1
11110110
11111111
111
0
1
1
0
11111011
11111011
11110111
1000
11111101
0
10
0
11111110
11111001
11111010
11111000
11110011
11110011
11111101
11111010
11111011
11111110
11111101
0
11111111
110
11111110
0
11111001
11111111
0
1
11110011
1
0
11111010
10
10
10
11111111
11111110
11111010
11111101
11111001
11110101
11110011
11111011
11111011
11111110
1000
10
1
110
11
100
11111100
0
0
1
0
11110111
11111100
11111100
11110110
0
0
1
0
11111100
11111110
0
11111010
11110101
11110010
11110110
11111100
11111110
10
11111111
10
0
110
100
10
110
0
0
0
11111010
11110100
0
11111111
11111110
111
1
0
1
11111100
11111101
11111100
11111000
11110110
11111010
0
11111010
11111011
11111001
11111111
11111100
101
11111000
1011
11111010
0
0
0
1
1000
110
11111101
11111110
0
11111101
11110111
11111011
11111100
11110110
11111011
11111001
11110011
11111000
11111100
11111010
11110101
11110101
0
101
110
0
100
11111010
1
0
0
11111111
110
1110
0
1011
100
11111110
0
11111010
11110111
11111111
11111011
11111101
11111011
11110111
11110111
11110001
11110111
11110010
11110101
11110010
11111010
1001
1
0
11111111
11111111
0
0
11111111
0
11111111
11111100
11111000
11110111
11110111
11110110
11111100
11111101
11110111
11110111
110
11111110
11110111
11111000
11110111
11111101
11111010
11111001
11111110
0
0
0
0
