1
0
0
0
0
11111111
0
11111111
0
0
0
0
0
0
11111111
0
0
0
0
0
0
0
0
0
11111111
0
0
11111111
0
0
0
0
11111111
0
11111101
11111001
1
1010
1000
1000
110
100
11111010
11110101
11111101
101
10
11111000
11110101
11111010
11110110
11111010
0
0
11111111
0
11111111
0
11111011
110
11111110
11
100
1010
11111101
11110101
11110101
11110010
11101100
11110000
11101111
11110000
11110000
11110010
11110001
11111010
11111111
11110100
11111010
11110101
11110111
11110111
0
0
0
1
11110101
0
10
1
11111010
11110000
11111010
11110101
11110110
11111110
11111111
11111111
1
0
11111101
11110011
11110011
11111011
11110111
0
11111110
1
11111101
11111110
11111100
0
0
0
11110101
1
11111000
11111101
11110111
11111001
11111000
0
11111110
11111110
11111111
11111100
11111101
1
1
110
0
1
101
101
11
1011
11111110
11
11111011
1
11111111
0
11111001
1
11110000
0
11111100
11111111
11111101
11111000
11111011
11111100
11111110
11111111
1
11111111
1
101
1001
10
110
1000
1011
1110
1010
110
0
1
0
11111100
11110100
11101111
11111001
11111100
11111000
0
11111100
11111000
11111001
11111100
0
0
10
11111110
11111111
100
1
11111111
110
10
100
10001
11100
1110
1101
10
0
11111100
11111001
11110110
11110011
11110100
11110011
11111011
11111100
11111011
100
111
101
100
11111100
11111110
1
1
11
11111101
11
11111110
111
111
10100
1110
1000
100
11
101
11
11110110
11110111
11110111
11110111
100
11
101
1000
10010
1101
0
11111111
11111110
1
10
1
11111101
1
1
111
1011
1101
11111011
110
1
1
111
11111011
11111100
11111010
0
1010
1101
10100
100000
11001
11011
1111
11111101
11111000
11111101
11111011
11111111
0
11111111
11
100
111
11010
11110
11111011
11111010
10
1
11
11111001
0
101
10011
11110
101001
100111
11110
1001
1000
1
11110110
11110111
11111001
11111101
11111110
11
11111101
1
1
111
10101
10101
11110111
11110011
11111000
0
0
0
11111100
100
11000
11100
1010
100
100
11111111
11111011
11111011
11111001
11111010
11111100
0
11111011
1
11111101
0
10
1011
1110
11
11110101
11110101
11111011
0
111
110
11110111
11111011
1000
111
11110111
11110100
11110111
11111010
11111000
11111001
11111011
11111011
1
0
0
100
10
110
11
110
1000
100
11110001
11111110
11111111
11111110
110
11
11110101
11110111
11111111
11111001
11110011
11111001
11111010
11111111
0
11111110
11111011
11111000
11111111
0
11
110
10
11111101
101
11
1000
100
11111100
11111100
11111111
1000
100
0
11110011
11110011
11111100
11110111
0
11111100
11
110
1001
1011
10
11111010
11111110
0
101
10
0
0
11111110
0
10
0
11111111
11101101
100
1000
11
11111001
11110000
11110100
11110111
11111110
111
101
101
1110
10000
1100
11
11111110
0
0
10
100
11111101
11111011
0
11111111
1000
11
11111100
11110011
11111101
0
11111011
11111010
11101110
11110011
11111110
1
101
1100
101
10000
1110
10010
110
1
100
11111111
1
0
11111100
11110111
11111100
11111111
10
11111111
11111100
11110101
1
0
11111000
11111001
11110111
11111001
1
11111101
0
11
110
1100
1001
10001
1010
111
10
0
11111111
0
11111010
11111111
11111111
11111110
100
1000
10
10
110
1000
11111010
11111100
11111001
11111101
11111010
11111001
11111111
11110111
11111010
11111111
110
1001
10
100
11111101
11111101
11111100
11111101
11111000
0
11111100
100
0
11
11111001
111
11110011
11111010
11111110
11
11111110
0
11111100
11111101
11111001
11111100
0
0
10
100
11111100
0
11111100
11111101
11111010
11111111
11111110
0
0
110
10
0
11111100
11111001
11111001
0
111
111
11111101
10
11111101
11111100
0
0
10
110
0
11111110
11111110
11111111
0
11111110
0
11111111
0
11111011
0
1
11
11111011
11111011
11111000
11111110
11111101
1
0
0
10
11111100
10
0
1
11
101
11
100
100
0
10
1
10
1
11111111
11
110
1010
11111101
11111001
0
11111100
0
11111011
11111010
11110100
0
11
0
0
11111101
0
0
11111111
11111110
10
100
11
0
110
101
0
1
11111101
11111110
111
11111001
11
110
100
0
1
0
11110101
11111010
110
1001
11
0
0
11111100
0
11111111
11111101
10
10
11111101
11
11
11111100
1
11111010
11111101
11111111
11110101
110
11111101
11111001
1
0
1
101
11111011
1000
111
0
11
11111010
11
10
101
1000
110
11111101
11111111
0
10
11111111
11111111
11111001
11111010
11111001
10
10
11111111
11111001
0
1
0
0
11111110
11111110
1101
1
100
0
11111111
1001
10010
111
1
11111101
110
10101
10101
11
11111001
11111100
111
1011
110
101
0
11111110
0
0
0
0
0
100
11111110
1
1000
100
1101
1000
10
100
1010
1010
10
1
1011
100
0
101
1001
101
11111111
0
0
0
1
0
0
11111111
0
1
11111111
0
11111010
11111100
11
1011
1100
1001
1011
10000
1000
11111101
10
1000
1011
11111110
11111101
11111010
11111001
1
0
1
11111111
