0
0
11111111
0
0
11111111
1
1
0
0
0
0
11111101
11111100
0
0
1
0
0
0
0
0
0
0
11111111
0
0
0
0
1
11111111
0
11111110
11111110
100
1
11111100
11110101
11111000
11111010
11111000
11111000
0
1
11111111
11111101
11
110
101
11
100
100
0
0
0
0
0
0
0
11111111
11111110
11110111
11111101
11111100
1001
1111
1010
11
1001
100
1000
1101
1000
1
0
11111101
11111101
101
11111101
0
1001
1000
0
0
0
1
1000
0
11111100
11111000
0
11111110
11111111
110
11110110
11111011
11111010
11110111
11110101
11110101
11111000
11110111
11111000
11111011
11111101
11111111
100
11111100
11111111
11111110
0
0
1
0
10
11111100
1001
11111110
11111111
11111010
11111001
11111000
0
0
11111100
11111110
11111011
11111011
11111101
11111100
11111010
11111101
0
11111100
0
11111110
11111001
11111010
11111110
0
0
0
1
11111101
101
11110110
11111100
11111110
11110100
11110111
11111101
11110111
11110111
11111011
0
101
11111110
11111110
11111101
11111100
11111011
0
0
11111000
1
11111111
0
1
0
0
11111001
11110111
0
11110100
11110110
11111000
11101111
11110110
0
11111100
11111011
11111101
11111011
10
10
0
1
11111101
11111011
11111101
11111101
11110110
11101111
11111111
0
101
11111111
0
11111100
11110001
11111001
11111101
11111000
11111000
11110101
11111101
0
10
11111111
11111101
100
100
10
1
11111111
11111100
100
11111111
1
11111010
11110000
11110100
1
101
11110111
1000
11110110
11110111
11111001
1
10
0
11111011
11111101
100
11111010
11111111
111
1001
1001
0
10
11110111
11111110
11111111
11111110
11110111
1
11110000
11110101
0
11111001
11111111
11111000
11111000
11110110
11111001
0
11111100
11111110
11111010
11111101
11111010
11111100
0
110
1010
111
0
11111011
11110101
11111100
11111100
11110110
11111010
11111101
11110100
11110111
111
101
0
11111101
11110010
11110001
11111010
11111011
11111101
11111000
11110111
11111100
11111101
0
1
110
1001
1000
0
11111101
11111000
11111001
11111010
11111001
11111001
11110000
11110101
11111101
101
1
0
11111011
11111101
11111101
11111100
0
11111001
11111010
11111111
11111010
11111100
11111110
11111110
11111111
110
101
0
11110111
11110111
11111100
11111111
0
11111011
11111001
11110100
11111110
11111100
0
11111111
11110111
0
0
0
11111001
11110100
11111010
11111101
11111010
11110010
11111000
11111001
11111110
11
101
11111111
11110111
11111101
11111000
0
10
11111101
11111000
11111101
0
0
10
11111111
11110111
11
11111100
11111100
11111000
11110011
11110110
11111010
11111111
11110111
11111001
11111111
100
110
1
11111110
11111011
11110111
11111100
100
0
1
1
10
1001
1100
110
11111001
11111011
11111110
11111001
1000
11111111
11111011
11111110
1
11111110
11111101
11111111
1
11
10
0
0
11111001
11111000
11111110
1
11111100
1000
11111111
0
1100
10001
1011
11111010
11111111
110
11111100
10
100
0
0
0
0
1
1000
11
111
10
11111011
11111110
11111011
11110111
11111111
11111111
11
110
11111101
11111010
0
1100
1100
0
0
11111111
11110111
11111110
110
10
10
1
101
110
1000
0
10
101
11111111
0
11111000
11111100
11111110
11110101
11111000
11111011
1
0
0
10100
1000
0
1
11111101
11110010
11111100
100
1000
10
11111011
11111110
10
11
1
110
1010
0
11110110
11110100
11110111
11111111
0
10
11111101
11111111
0
11
1010
1
11111011
11111100
11111001
11111101
11111111
0
1
11111101
11111101
0
11111101
0
101
1000
11
11111100
11110101
11111111
10
11111101
11
0
101
101
10
11
110
1110
1
11111010
11111000
11111110
1000
11111111
11111111
101
10
11
11111110
11
101
101
0
0
10
0
11111110
11111111
1
0
10
11
11111101
111
1100
1000
0
11111000
11110110
11111100
101
0
1000
11111111
110
100
11111111
110
110
1
101
100
101
11
110
111
10
0
110
110
10
10
1101
11111010
10
110
11110111
11111100
11
0
1
0
0
11111111
11111101
0
11111111
11111111
100
10
0
1
110
1010
111
1100
1000
1000
1010
11111111
11111000
11111111
100
100
111
11111101
10001
10
1
0
1
0
11111110
11111111
11111111
11111101
11111111
11111111
11111101
0
1000
111
1110
1111
111
10
1010
11111111
11111100
11111101
0
11111111
11110111
11111010
10
0
11111001
11111111
0
10
11111001
11111111
100
11111100
11110111
11111101
11111111
10
11
11111110
111
1
1110
11111111
11111110
11111010
1
0
0
11111111
11111011
11110100
11111100
11111001
11110111
11111001
11110100
11111010
11111010
11111010
11110010
11101010
11110010
11101111
11111000
11111001
11111001
11110110
0
11
0
11111010
11111111
1100
1000
0
1
1
0
1
0
11111010
11111011
11101101
11101100
11110100
11110101
11110100
11101110
11101000
11110000
11100011
11011001
11100000
11011111
11011100
11100111
11111010
11111000
11111100
11110110
101
100
1
11111111
0
0
0
11111010
11111101
11111110
11111110
11
0
11110111
11110100
11101010
11100011
11011101
11100101
11100011
11100010
11101011
11101010
11101001
11110101
11110011
11110111
11111101
0
0
0
0
0
0
0
0
0
11111101
11111110
11111100
11111100
11111001
11111000
11110100
11110111
11101110
11111001
11111100
11110110
11111000
11110011
11110110
11110111
11111100
101
1
0
0
1
