1
0
0
11111111
11111111
0
0
0
0
0
0
0
0
11111101
11111111
11111111
0
11111111
1
0
0
11111111
0
0
0
0
0
11111111
0
0
0
0
0
11111111
0
100
101
1000
1011
11111010
11111011
11111010
1001
101
11111111
11111100
101
11
110
100
110
10
0
0
0
0
0
1
0
11111010
11111001
10
11
0
1011
1010
1010
1010
1011
1110
11101
10101
1110
10100
10111
1100
1110
1011
11111111
11
1000
1010
0
0
0
0
10
11111100
1
0
1100
1110
1111
1001
1010
101
111
101
0
100
0
11111100
1
1000
111
0
1110
10
110
11111110
101
0
0
0
0
100
1000
10110
11001
10010
10110
1010
1100
10
101
10
0
11111111
11111101
11111010
0
11111111
101
11
100
11111001
1101
1100
10
1
0
0
11
100
11111111
11
10
1110
1000
11
111
110
101
10
110
10
10
11111110
11111101
11111111
11
1001
11
1
1110
1010
100
1
11111111
11
11111111
11111111
11111110
11111011
11111110
100
1001
1110
111
1001
1001
101
1010
1001
11
0
11111000
11111100
11111101
0
11111110
1
1111
1010
0
1000
11111111
11111011
11111110
1
10
1
10
11111110
110
111
100
1000
1
110
1010
10
10
11111101
11110111
11111000
11111000
11111111
11111011
11110101
0
101
11
101
11110111
11111100
11110101
11110100
111
0
11
0
0
11
100
111
1
101
11111111
11111111
11111011
0
11111001
11110101
11110101
11111000
11111100
11111010
1
111
0
11111111
11111100
11110111
0
0
11
11111111
11111101
0
10
1
111
1101
110
11111101
11111101
11111111
11
11111111
11111000
11110011
11110100
11110111
11111001
11111011
11111010
11111110
11110101
11110111
11111011
11111000
11110011
0
1
11111110
11111010
11111010
1
1
111
101
101
11111110
11111010
11111111
11
11111111
11111100
11111000
11110110
11111000
11111101
11111001
11111110
11111110
11111000
0
11111001
11111001
11110101
10
11
111
11111110
11111001
11111110
1
0
10
110
11111111
1
1110
1110
100
10
0
11111010
11111001
11111111
11111000
11111011
100
11111001
0
11111101
11110010
11111101
11111111
0
11111100
11111101
11111111
10
10
1
0
0
1
1011
10000
1101
111
1
11111011
11111010
11
11111111
0
11111101
110
11110111
11111000
0
11111010
100
101
11110010
11111001
11111101
11111001
11111101
0
11111111
10
10
1001
111
1011
1010
1010
1
11111101
0
11111101
11111110
11111001
11111111
11111101
11110100
11111110
11111110
11111111
1
1010
11111001
11111011
11111011
11110100
11111001
11111101
11111111
100
10
11
101
100
1101
1001
101
0
11111111
11111000
11111110
11110111
11111001
110
11111110
11
11111111
1
1100
1010
11110111
11111100
11111101
11110110
11111010
11111100
0
11
100
111
111
11
1010
1001
11
1
11111100
11111111
11111101
11111000
11111001
11111100
11111101
1
11111110
0
1001
1011
11111000
11111100
11111001
11111011
11111010
11111101
0
1000
1110
1110
111
111
111
111
1000
110
11111110
11111111
11111110
11
0
11111101
110
11111101
1
101
0
11
11111001
11111110
0
11111101
11111001
11110101
11111101
1010
1100
1000
11111111
1
100
100
1100
100
11111110
11111100
11111011
11111101
11111001
11111011
11
11111001
11111000
100
11111001
1010
0
1
1
11111011
11111000
11111000
0
111
1101
1001
11111111
1
11
10
100
1
11111100
11111110
11111011
11111111
11111011
11111110
11
1001
100
11110100
11110111
1000
11
1
0
11111111
11111001
11111001
1
110
101
11
1
101
0
1
11
110
0
11111110
11110101
10
11111111
0
1001
100
1
11111001
11111100
10
100
11111110
101
11111101
0
11111110
0
0
11111111
11111010
1
11
111
111
1001
1001
101
11111010
11111001
111
111
1
11
11111010
11
11
11111110
11111110
101
1
11111110
0
0
0
0
11111101
11111011
0
111
1000
1000
1000
1000
110
101
11111111
11111100
1001
1000
101
11111000
11111010
11
100
1001
11111100
110
11111110
11111101
11111011
11111010
11111101
11111100
11111110
11111101
10
1000
1010
111
0
1
101
100
10
11111101
100
1000
1
11111100
11111010
0
11111111
1001
1000
11111100
1000
0
11111010
11111110
11111110
11111000
11110101
0
1001
1010
1011
110
11111110
1110
10111
10100
1101
1000
1101
110
101
1101
11111111
1
0
11111011
11111111
11110100
11111000
11111010
1
11111111
0
11111011
11111111
11111100
100
1101
1110
1001
101
1001
10110
10001
10110
1011
1101
100
110
10
1
0
0
110
11110011
11111000
11111110
110
11111100
1
1
0
11110101
0
111
1001
1100
1100
11001
10010
1101
10
1
11110101
110
101
11111110
0
0
11111111
0
0
110
11111101
11110100
11110011
11110111
11111000
11111000
11111010
11110111
11110110
11110010
11110111
0
10
1001
0
11110110
11111100
11111111
11110100
11111100
1000
11111110
0
0
0
0
0
0
11111101
11111011
11111001
11110110
11110010
11101110
11110001
11110001
11100001
11101001
11101010
11110100
11110011
11110000
11101110
11110000
11111000
11111000
11111011
1
0
0
11111111
11111111
