0
0
0
0
1
0
0
1
0
0
0
11111111
0
10
11
1
0
0
0
1
11111111
0
0
0
0
0
0
0
0
0
11111111
0
1
1
1
1
100
1
111
11111110
10
11
11111001
11
1101
1110
11111110
11111011
11111101
11111001
11
11
11111111
0
0
0
0
11111111
10
101
1000
11111100
11111010
11111010
100
1100
1101
111
1111
1011
101
101
1101
1010
1001
1001
101
11111011
11110011
0
11
1000
0
11111111
0
0
0
101
1
11111101
110
1010
10010
10001
1100
10000
10111
10010
1100
1111
1101
111
10
100
111
11111111
11110100
11110110
11111010
11111010
100
0
0
11
10
11111100
100
1
100
111
110
111
1101
111
101
111
11
101
110
10
11
1
11111010
11111110
11111111
11110110
11110000
11110110
101
0
0
0
0
100
1010
111
100
11
110
110
1000
0
11111011
100
0
1
100
11111111
0
11111101
11111000
11111111
11111101
100
11110111
11111011
11111110
11111010
0
110
11
10101
0
10
111
100
111
100
111
11
0
10
11
0
11111111
11111110
11111010
11111100
11111000
11111100
0
11111110
11111100
0
11111100
0
11111110
1010
11111011
10100
110
110
110
111
110
10
11111110
11
1
11111111
10
11111100
11111101
11111111
11111100
0
10
11111111
0
0
11111100
11
11
100
100
11
10
1111
1000
0
11
11
1
11111111
11111010
11111001
11111100
11111100
100
101
101
11
11
1
10
11111111
11111110
10
11111000
11111111
10
11111100
11
0
11111110
11111101
1
0
11111011
11110010
11111000
11110111
11110101
11110100
11110110
0
1000
1010
10000
10000
1000
1000
100
0
100
101
11111011
1001
11111101
11110111
100
0
1100
11110101
11110010
11110100
11101111
11100010
11101010
11110000
11110111
11110111
11110100
11111111
11111111
11
1011
1101
101
110
11
10
1
11111111
11111001
1000
1110
10
0
110
11111011
11110101
11110111
11101100
11101011
11101110
11110011
11111010
11111101
11
0
11111011
11110101
11111011
11111110
11
10
11
0
0
11111010
11111101
11110101
1
100
11
0
1
11111011
11111001
11111110
11111010
11111100
100
111
1101
1011
1000
11
11111010
11110001
11110010
11111011
11111110
0
1
11111011
11111101
11110010
11110001
11111010
110
11111111
11111011
11111111
0
0
11
100
1000
1000
110
1001
1011
111
0
11111101
11110111
11110111
11110010
11111001
0
10
100
0
11111110
11110101
0
11111011
11111111
11110101
11111001
11111011
11111110
11
101
111
111
110
1
10
11111111
0
11111100
11111010
11110011
11111000
11111010
11111001
11111100
11
110
0
11111110
11111000
1
11
11111110
110
11111100
11111101
0
11111010
100
11
0
11111101
11111011
11111100
11111101
0
11111100
11111000
11111000
11111001
100
11111110
11111100
0
11
100
0
11111110
11111100
11111110
11111101
100
0
11111111
100
10
11
11111101
11111000
11111001
11111100
11111010
11111110
11111101
11111011
11111001
11111001
11111110
11111111
11111110
0
0
1
10
100
11
11111101
11111111
11111100
100
11
0
111
11111111
11111111
11111101
11111100
11111110
11111001
11111001
11111001
11111000
11111100
11111110
11111001
11111011
11111011
11111111
100
1
0
11111101
0
10
11110111
11111011
10
110
1000
0
110
0
11111100
0
0
1
10
11111111
11111010
11111101
11111100
10
0
11111101
0
100
100
11
0
11111111
0
10
0
11111110
11111110
11111011
10
11111100
1001
1010
11111101
110
0
11
100
11111110
11111111
11111111
11
100
111
100
101
101
101
0
11111010
11111111
0
11111011
11111011
11
11111101
101
1000
11111111
11111111
100
110
1000
110
111
10
0
10
100
111
1000
1010
110
1
0
11111100
0
11110111
0
11111111
0
0
11
11111111
1011
0
0
110
1011
1001
101
11
0
11111111
10
10
100
11
11
110
1
11
0
0
11
11111110
11111100
11111011
11111110
1010
1
11111101
1001
0
0
0
1000
1
11111100
0
0
11111111
0
101
11
10
10
1
100
110
11111111
1
0
1
0
0
1
1000
110
101
11111111
1
1
0
110
0
11111101
11111111
0
1
11111111
100
11
1000
100
0
0
1
11111110
11111100
11111110
11111110
11
11111111
110
1001
1011
111
11111110
1
0
11111111
1110
10001
11111110
11111100
101
0
0
11111110
11111110
0
11111100
11111110
101
1
11111111
10
0
11110100
11111001
0
1
11110101
11111011
1101
1
0
0
0
11111001
100
1001
10
100
1
0
0
11111100
0
11
100
100
11111011
11110010
11110111
11111001
11110100
11110101
11101101
11111100
0
0
0
11
11111111
0
0
0
11111111
11110101
11111100
11111000
11111000
11111101
11110110
11111001
11110111
11111000
11111000
11111100
100
100
11111100
11111101
11111011
11110111
11110000
11111111
11111100
11111001
101
0
11111111
11111111
0
0
0
110
1010
11111011
11111110
11111110
11111100
11111110
11111001
11111001
11111110
11111010
11111001
110
0
11111100
11111011
11111001
11111010
0
11
0
0
0
0
