11111111
0
0
0
0
0
0
0
0
0
0
0
11111110
11111101
0
0
0
0
0
0
11111111
0
1
1
0
0
0
1
11111111
1
1
0
11111101
11111110
11111010
11111001
11110101
11110000
11110000
11101111
11100111
11111100
10
11111001
0
11111000
11110111
11110100
11110010
11110010
11110111
11111010
11111111
0
0
0
11111111
11111111
0
11111000
11110110
11111001
11110111
11101010
11111110
11
11111110
10
100
0
0
11111110
11111100
11110110
11110001
11101011
11110011
11111111
11111001
11111110
0
110
0
0
0
0
11111101
11111000
11111101
10
101
0
101
11
11111111
11111111
1
1
100
1010
1
11111110
11111100
11110110
11111110
1
1
1000
10
0
11111011
0
0
100
11111110
11111001
1000
1
110
1
101
10
111
11
111
10
1000
101
11
11111101
0
11111100
11111111
11111111
0
11111011
111
1
11111101
11111101
1
1
1001
101
11
11111101
11111111
100
11
100
11111101
0
111
11
1
11111111
10
0
11111110
11111100
11
1
11111111
11111100
11111111
1011
11111110
11111111
0
100
11111100
0
1010
100
11111101
11111110
10
11
0
11111110
10
0
11111110
0
11111111
11111110
0
0
11
1
1
0
11
11111110
110
11111101
0
11111111
11111101
11
1010
110
11
100
110
0
11111110
11111100
11111111
11111100
11111101
0
11111100
11111001
11111100
11111110
11111111
10
111
0
1
11110110
11111011
11111001
11110111
0
11111101
110
111
111
10
0
0
0
11111101
10
11
101
1
1
11111101
11111010
11111111
11
0
11111101
11
1001
10
11111111
11111110
101
11111110
11110111
1
110
101
110
1010
101
100
11
0
101
110
111
10
10
1
0
0
0
101
0
0
11
11111011
11111111
111
11111101
11111101
11110111
11111010
101
101
11
1000
1000
1011
11
1001
101
1000
101
0
11111101
11111111
0
1000
1000
111
11111110
11111100
101
11111101
0
0
11111110
11111011
11110110
11111011
10101
1001
1101
11
0
101
1
11
10
100
11111101
1
11111111
0
1
1000
110
101
0
11111101
11111011
10
1110
1011
11111011
11111101
11110010
11111111
10000
100
0
11110001
11111101
11111100
11111100
11111111
11111000
11111010
11111111
1010
0
11
100
110
101
0
10
11111010
11111110
101
100
1
11111110
11
11110100
11111100
1101
11110010
11101101
11011010
11100011
11110100
11110110
11110001
11110111
11111010
0
110
11
1000
110
0
11111101
11111101
11111011
11111011
11111011
1
100
1100
1010
11111010
11111010
11111000
1101
11110100
11011010
11010110
11011000
11100010
11101101
11110010
11111111
11111110
0
101
10
101
0
11111100
11111010
11111000
11111011
0
11111001
11110111
1
1110
1010
11110111
0
1001
1010
11110110
11101000
11110100
11101011
11110100
11110101
11111011
11111001
11111010
1000
1011
100
1
11111001
11110111
11111011
11111111
0
10
11111101
11111101
100
10000
110
11111000
11111110
111
1110
10
11111100
11111011
11111111
11111011
11111100
11111110
11110010
11111011
10
11
100
11111101
11111000
0
1
11
10
100
100
0
100
10110
0
0
10
1000
0
1000
100
11
0
0
10
11111111
11111100
0
11111110
11111101
11111111
11111110
11111111
11
101
0
100
0
100
10
110
110
100
0
1001
1000
11111110
111
10001
1011
110
110
110
100
1000
10
0
11111100
11111101
11111101
10
110
111
110
100
0
0
1011
101
11111100
101
101
11111000
0
11111100
100
1111
1001
1100
1100
110
1010
11
11111110
11111111
11110110
11111011
11111110
101
1
11
0
11
111
10
11
11111110
1110
11111010
11111111
11111010
11
11
1
110
1100
100
1001
1000
110
11111111
11111100
11111101
11110110
11110110
11111010
11111110
11111110
11111111
1
10
111
101
0
11111011
1000
11111111
10
1011
1
11111101
11111111
0
0
11111111
0
101
10
11111111
11111101
11111100
11111100
11111011
11111011
11111110
11111010
11111110
11111110
11111110
0
1001
11111011
0
11111100
11111010
0
10
11001
0
11
0
101
100
100
11111101
11111101
0
11111111
0
0
11111100
11111100
11111110
11111110
11111011
10
0
11111101
11111101
10
1
11111011
11111000
0
1
1101
1001
1001
11
10
0
101
11111100
11111000
11111101
10
0
0
0
0
0
0
101
101
0
11111001
11111110
11111101
1000
11111100
0
11111111
0
11111101
111
11111010
11111000
110
10
1
11111010
11111110
0
0
0
0
11111101
1
11111101
1
1101
1100
110
11111111
11111001
11111011
110
11111110
11111111
0
0
10
11111001
10
1
11111110
11111111
10
11
11
1
100
1000
100
0
0
101
111
1000
1001
10
0
0
11110001
11
111
0
0
0
0
11111010
101
11110111
11110000
11110110
11111100
0
1
11111100
11110011
11110110
11110110
11101100
11111100
0
11111100
11111110
11111000
11110110
11110110
11111011
11111111
0
0
0
0
11111111
0
11111111
0
1
100
1001
100
11111110
11110000
11110001
11101110
11110010
11111001
11111101
11111010
11111110
11111110
11110101
11111111
10
11111010
0
0
0
0
0
