0
0
0
1
1
1
0
0
0
0
0
0
11111111
0
1
1
0
1
1
11111111
1
0
0
0
0
0
11111111
11111111
0
0
0
0
0
0
11111111
11111111
11111001
11111001
11110110
11111000
11110100
11110110
110
101
0
11110010
11110101
11110010
11110011
11110101
11111110
11111111
0
0
0
0
0
0
1
11111000
11110111
11111000
11111001
11101110
11111100
11111110
11111100
11111000
11110010
11110111
11111101
0
11111010
11101110
11111101
11111100
0
11101110
11111011
0
11111001
100
1
1
0
0
110
0
100
11111101
1
1011
111
0
0
11111110
10
11
0
0
11111000
11111000
11111101
11111011
11111101
11111101
11111100
11111110
1010
1
11111011
1
0
0
111
111
111
111
11
101
1001
0
10
100
1
11111111
10
101
11111111
11111010
11111110
1
11111100
10
10
11111011
0
11
110
11111001
0
0
11111010
11
11
1010
11
0
0
11111110
11111110
11111110
11111110
0
11111110
10
101
1
11111111
1
11
11111110
11
11111110
11111011
11111110
1111
11110111
1
110
11111111
10
110
1000
11111101
11111101
11111111
0
0
11111111
11111011
0
0
10
10
0
11111111
11111111
11111101
0
11111101
11111101
0
101
1011
0
11111101
1101
11111010
1010
10
101
11111101
11111011
11111110
10
0
11111110
11111110
11111100
11111110
11111100
1
0
11111100
11111100
10
1
11111010
1
11111110
110
1010
10
11111001
10
10
101
1
1
11111110
11111011
0
1
0
11111010
11111111
11111100
11111101
11111001
11111000
11111010
11111101
11111001
11111110
0
100
0
11111010
11111111
11111011
11111111
11111111
11111011
11111010
101
0
11111100
0
10
0
1
11111010
11111101
11111101
0
11111101
0
11111101
11111101
11110111
11110011
11111000
11111101
11
11111011
11111000
100
1
11111100
0
11101010
100
110
10
11111100
1
110
100
10
11111101
11111111
11111110
101
11
10
0
11111111
11111010
11111010
11110110
11111110
110
11110111
11110111
1010
10
111
11111000
11101011
1010
101
1010
0
1
10
11111110
11111110
1
101
110
1010
1000
10
1
11
110
0
11111110
11111001
11111000
11110110
11110001
1
1
1001
11111010
11110111
101
0
11
11111011
100
101
101
101
11
101
110
10
1000
10
0
11111111
100
1
11111111
1
11110110
11111000
11101001
11111101
10
100
0
11110111
1010
111
10
1011
101
100
11
101
11111101
11111100
0
10
110
0
0
100
11111101
11111110
11111111
100
11111011
11111010
11110100
11111011
10
11110101
0
11
1011
1011
10
11111101
10
0
11111111
11111100
11111001
11111000
11111100
11111110
11
1
0
0
11111111
0
11111011
10
11
1001
1
0
11111011
11111001
11111001
100
1000
111
11111111
11110001
11111000
11110010
11110011
11110100
11110111
11111011
101
1
11111101
1
0
11
10
101
100
10
0
11
0
10
111
11111010
11111011
111
11
1001
11111000
11110010
11110001
11101100
11101011
11101000
11101001
11101010
11110101
11111111
0
0
0
0
11
110
100
100
0
0
10
11110001
11110011
11110111
0
1000
0
100
11110100
11110111
11111000
11110111
11110000
11100101
11011101
11011110
11011111
11101001
11110101
11111100
11111111
0
11111111
110
0
10
0
0
0
11111011
0
11111011
110
11
1001
10
11111101
10
11
1
110
100
11111000
11101111
11101100
11110000
11111100
11111111
0
10
11111110
11
0
10
11111100
1
11111110
0
11
0
1
1000
1000
1101
1
1000
110
1000
1011
1011
1001
101
0
11111101
11111111
0
0
1
11111100
11
0
1
11111001
1
0
1000
11100101
0
0
0
0
101
101
110
1010
1011
1001
1000
111
111
101
11
10
0
11111111
1
101
10
11111111
11111111
100
11111001
1
0
11101111
11
1
11111100
11111100
11111010
1010
111
11
1011
100
101
10
10
10
11
1000
1
0
11111110
11
0
0
0
11111101
11111110
11111111
11111100
11110011
0
11
11
11111011
11111000
100
1
11111101
0
0
100
1
0
11111110
11111111
10
110
0
11111110
1
101
100
11111111
11111000
11
11111101
11111011
11111001
0
11111111
0
1111
11
1
11111010
11111110
0
11111110
1
0
0
11111111
0
11
100
0
1
101
0
100
11111011
11110010
11110110
11111011
0
1111
0
0
0
0
10000
101
11111100
11
11
10
11111101
11111111
0
0
0
11
11111111
11111110
100
11111110
11110011
11111011
11111011
11111001
11110101
11111011
11111011
110
0
0
11111111
11
10
1101
100
1000
1001
1
1
11111110
11111110
1010
1
100
11111111
0
11110011
11110001
11101111
11110101
11111000
10
11111111
11111100
0
0
1
0
0
0
10
11111000
11111101
11111100
11111001
11111011
11110001
11111000
11111101
11110110
1
0
1001
1
11110010
11110110
0
100
1011
1000
110
0
0
0
0
0
0
0
0
11
101
1
110
100
11111111
0
11111100
11111001
0
11111100
11110100
1
11111101
11111010
11111011
11111101
100
110
110
0
1
0
1
