0
0
0
0
0
0
0
1
0
0
0
0
11111110
0
10
1
11111111
0
0
11111111
11111111
0
0
11111111
0
11111111
0
0
1
11111111
0
1
11111110
11111101
11111010
11111010
11110111
11110010
11110100
11101100
11101001
11110101
11
10
1001
11111101
11111001
11110111
11101101
11110010
11111000
11111011
0
0
0
0
1
1
11111110
11111000
11110101
11111010
11111001
11110001
11111010
110
10
11
11111111
11111100
11111001
11111110
0
11111010
11111001
11110111
10
11111101
11111011
10
100
111
11111111
0
0
0
100
0
0
11111101
11111101
11
1
0
1
11111110
0
110
111
111
101
10
11111111
0
100
1
11111101
1
110
11
11111101
0
0
1
111
100
1011
11
110
1000
1101
1001
1101
1111
1010
1011
10011
1011
1001
111
10
0
1
101
100
0
11111110
11111110
0
11111010
0
11111111
10
1011
1110
101
1001
1001
0
100
1010
10011
10000
10001
1101
1011
1111
1100
1001
111
110
111
101
11111110
11111100
1000
11
11111101
0
101
0
1
1000
101
1000
1
1
100
110
1100
1100
1010
1100
1101
10011
1101
1101
1000
101
0
11111110
11111010
100
11111000
11
11111000
0
0
11111101
11111110
100
0
1
0
11111111
1
0
101
1001
101
100
111
101
0
0
100
11111011
11111010
11111110
11111010
100
11111111
10
11111001
11111000
11111111
11111001
0
11
110
100
11111010
11111111
0
0
11111111
0
11111111
11111100
11111100
11111000
11111011
11111110
10
11111101
11110110
10
11111111
11111000
11
1100
1010
0
11111110
11111100
100
11
1001
110
11111111
0
101
11111111
11111101
11110110
11110111
11111001
11111011
11111001
11111010
11111011
11111100
0
11111101
11111100
11111101
11111110
111
1001
11111111
11111111
10
11110011
11111100
0
0
11111111
1000
11
0
0
11110111
11110111
11111000
11111110
11111000
11111011
11111110
1
0
11
11111011
11111010
0
11111000
11111111
1
101
11111111
11111011
11111101
0
11
1000
0
100
10
11111010
11111110
11111001
11111000
11111101
11
1
11111101
11111111
10
11
0
11111000
11111010
11111001
11110111
101
1100
100
11111101
11110100
11110111
11111011
11111101
1
11111110
11
11111100
11111011
11111101
11110111
11111001
11111011
100
1
0
10
0
100
11
0
11110110
11111100
11110010
1
11
0
10
11110111
11111101
11111101
11111100
11111111
11111100
0
11111110
11111110
11110111
11111010
11111010
11111011
1
10
0
10
10
1000
10
11111010
11111110
11111101
11110110
10
11
0
11111001
11111010
11110110
11111101
0
0
1
11111010
11111111
11111011
11111001
11111010
11111001
0
110
1
11111100
11111011
11111110
10
11111100
11111110
11111010
11111010
11111011
11
0
11111110
11111001
11111110
0
11111110
11111101
1101
11111110
11111001
0
11111010
11110111
11111010
11111110
11
101
0
11111100
11111000
11111100
11
11111111
11111111
11110101
11111101
11110011
11111001
10
0
11111011
1000
11
1000
1110
1010
11111101
11110101
11111110
11111111
11111010
11110110
11111110
10
0
11111001
11111000
11111000
0
1
0
11111111
11111011
11111100
11110101
11111100
11111110
1
11111111
111
11111101
1000
10000
11
11111111
11111111
11111101
11111110
11110101
11110101
11
11
11111100
11111010
11111101
0
11111111
11111111
0
11111110
11110111
11111110
11110101
11111100
11111010
1100
11111110
100
11111001
111
1000
0
110
100
0
11111100
11111011
11111011
10
0
11111011
11111100
1
0
11111111
0
101
10
0
1
11111100
11111111
11111100
101
1
11110111
10
100
101
1
10
1000
101
11111101
11111101
11110111
10
10
11111100
11111111
0
0
11111111
0
0
1
0
1
100
0
11
11
0
11111100
0
1011
101
1001
11
1
110
1
11111110
1
10
11
11111100
11111010
11111111
11111101
0
1
100
101
101
1000
1011
11111010
0
11111111
10
111
101
100
1
100
1010
111
1001
111
111
100
11111111
11111101
11111111
0
0
11111111
1
1001
11
1
0
11
1011
10
11111011
0
1
10
111
11111111
100
11
10
1011
111
101
10
110
0
111
1010
100
0
110
1101
11
100
0
11111100
1
10
10
11111010
1
1
1
111
1010
11111111
101
0
0
10
1
0
110
1010
1101
1011
111
1011
10000
10000
11
101
100
11111110
0
11111111
111
0
0
0
0
1011
10001
11111100
11111111
1010
11
1
11111110
11111110
10
1000
1000
1001
1111
1001
11111011
11111110
11111111
0
11111100
11111111
11111001
11110110
101
111
0
0
0
111
11111100
100
100
1001
10
1000
110
1
11111110
101
110
0
1
0
11111100
10
111
10
11111111
11110111
11110100
11111111
100
110
0
0
0
0
0
1
11111101
11110110
1
1
100
111
101
11
11
11
1
11
11
11
11
11111110
1000
11111011
11111011
10
11111110
11111111
0
0
0
0
0
11111110
11111101
1
11111111
0
11111001
11111011
11111110
11110000
11110000
11111110
11111111
11110010
11111010
101
0
101
101
1
11111100
0
1
0
0
