1
0
11111111
0
0
0
0
1
0
0
0
0
0
0
11111110
11111111
0
0
11111111
11111111
11111111
0
11111111
0
0
0
11111111
0
0
11111111
0
0
11111110
11111100
11110101
11110010
11110101
11110010
11110100
11101001
11101101
11100111
11111110
11110011
11101111
11110001
11110011
11110110
11110011
11110110
11111000
11111000
0
1
0
0
11111111
0
11111111
11111010
11110111
11111010
11110000
11110001
11101100
11101010
11100010
11011100
11100010
11011110
11100010
11110001
11110110
11110110
11101111
11111000
11110101
11110101
11110011
11110101
11111010
11111001
0
1
0
11111111
10
11110101
11110101
11111100
11110111
11101110
11101101
0
11111100
11111011
11101011
11100001
11101001
11101111
11111001
11111010
11101010
11110010
0
11111100
10
11111110
11111111
11111111
11111110
1
0
10
11111111
11111000
1
111
11
11111111
10
10
1
11111111
11111101
11111001
11101011
11110010
11111110
11111110
11111000
10
1001
10
111
1
0
11111100
11111010
11111110
0
0
11111011
11111011
10
100
0
111
1011
110
100
0
11111110
11110001
11101101
11101111
11110000
11111001
1
0
10
0
100
1010
111
11111110
11111011
0
0
0
11111111
11111110
100
11
1
11111110
0
11
11111111
11111101
11111011
11111001
11110101
11101011
11101010
11111011
1
100
1
1
10
101
101
11111110
11111110
10
11
11111000
100
0
1001
11
10
11111111
0
11111110
11111011
11111111
11111110
11111011
11110111
11101110
11110011
0
11
101
110
11111111
0
1
11
11110111
11111110
10
11111011
11111011
110
1
1
10
101
11111111
11111100
11111100
11111110
11111111
11111101
11111011
11110101
11110001
11110101
110
0
0
11111011
1
11111111
11111101
11111001
11110111
11111001
11110111
11111111
11111011
11
11111100
101
11111100
11111111
11111111
0
11111100
11111110
11111101
11111011
11111001
11110100
11110110
11111101
0
101
0
0
11
11111010
11111001
11111001
11110110
11101111
11111011
0
100
0
0
101
11111100
1
10
11
0
11111100
11111101
11111010
11111000
11111000
11111101
0
110
0
0
11111101
0
11111101
11110000
11101111
100
11111001
0
100
0
111
0
11111001
1
0
110
100
0
0
11111101
11111111
0
10
101
1000
1
11111111
11111110
11111101
11111101
11110100
11100101
11100011
0
11111111
11111100
100
1011
11
11111111
11111101
0
0
11
11
10
10
11
1000
1000
11111110
101
10
11111111
11
0
11111010
11111110
11111100
11100111
11110100
11111100
11111010
11111001
11111110
100
11111101
11111101
101
1001
10
0
1
0
0
11111111
11111111
11111010
11111011
0
11111110
11111110
10
11111100
11111010
11111101
11110101
11101101
11111000
11110011
11110010
11111101
11111100
11111111
1
0
1100
1110
0
0
11
10
1
11111100
11111111
0
0
1
110
101
1
0
11111111
11111011
11111111
1
0
11111000
11110011
11111111
10
11111011
100
1000
11
11
0
11
11111101
11
0
11111110
0
11
11
110
1000
101
10
111
11
0
101
100
10
11111001
11111010
100
101
11111110
100
110
11111101
11111101
1
1
0
11
11111011
11111011
11111101
11111111
100
110
110
110
1001
1010
1101
1010
1000
110
1
11110100
11111101
11111011
0
1
101
11111111
0
11111111
10
0
0
11111101
11111110
0
11111110
11111101
1
11
110
111
1000
10
111
1011
11
111
11111111
11111110
101
11111010
11111000
110
100
0
11111111
11111101
1
1
11111111
11111101
11111001
11111101
11111110
11111111
0
101
101
11111101
11111100
11110110
11111000
11111110
11111001
11111100
0
11111110
11
1011
0
0
111
1000
0
0
10
1
11111110
0
11111111
11111110
11110100
11111100
11
111
101
11111001
11110100
11101100
11110000
11101101
11101110
11100110
11110110
11111000
10
111
0
1
101
10
100
11111111
10
11
10
11111011
11111001
11111100
11111010
11111010
0
101
1010
11111111
0
11110101
11110100
11110010
11110000
11101001
11111101
11111001
11111011
11111100
10
10
11111100
1
1
0
0
11111110
1
0
11111011
11111000
11111000
11111100
11111110
100
101
10
1
1
11111001
11110111
11111100
11111110
11111100
11110110
11110101
0
10
11
0
100
11111111
101
11
0
11111111
11111111
11111100
11111100
11111100
0
11111111
101
110
101
10
1101
1000
1
11111110
11111000
11111011
11111100
0
1
1
0
11111000
110
11111111
10
110
110
0
11
11111011
11111100
0
11111101
11111111
110
11
11
0
111
101
100
11111110
11110111
11111111
1
10
0
0
0
11111010
11111100
0
101
101
1
10
100
0
11111011
11111001
11111111
11
11111110
11111010
1
11
110
11
100
110
101
11111011
1010
110
0
1
1
11111100
0
11111000
11111010
11110100
11111101
10
11111111
10
0
11111100
11111110
11111011
11111110
11111000
11110111
11111100
11111000
0
0
11111011
110
0
11111111
11111110
11111111
11111111
0
1
11111100
11111010
11111110
11111110
11101101
11101111
11110010
11110011
11110010
11110111
11101111
11101101
11110010
11110010
11110111
11101101
11110010
11110011
11110100
11110001
11111100
11
0
0
0
0
0
0
0
11111110
0
11111100
11111001
11110111
11110101
11110001
11110111
11110110
11101100
11101010
11111000
11110101
11110010
11110101
11110111
11111010
11111010
0
101
0
1
0
1
