0
0
0
0
0
0
0
0
0
0
0
0
0
0
0
11111111
0
0
1
0
0
0
1
0
0
0
0
0
0
0
1
0
0
10
100
11
111
1011
1101
1111
1110
10101
11111011
11111111
101
1000
100
10
10
11111110
100
100
0
0
1
1
1
11111111
1
0
100
11
1010
1111
100
0
1
101
10
10
101
10
1
1101
10111
10110
1111
1110
1010
101
11111110
11111101
0
0
0
1
11111000
11111011
110
1001
0
101
1000
0
1010
1110
100
11
10
101
1000
1100
1101
101
11
1010
1
0
1
11111110
101
0
11111111
0
11111110
11111011
11111001
0
11111110
1010
11
11
0
11
1001
101
11111111
0
0
100
1000
10
110
0
11111111
0
1110
1100
1010
100
0
0
1
11111100
11110000
11111111
11111111
11111101
110
110
101
111
1001
110
0
11111110
111
10
1
11
1001
1
11111110
10100
1100
1
10
11
11111111
0
1000
1
11111010
11
1
0
1001
1011
110
100
1000
1000
0
0
10
10
10
101
111
1
101
10101
1101
10
1101
11
11111111
1010
1000
0
10
1001
1011
1001
101
101
101
11
100
0
11111011
0
11111111
0
111
100
11
101
10001
10001
1101
101
1010
101
1000
1101
11
11
100
110
0
11111111
11111101
1
11
100
1
11111110
11111100
11111001
10
0
110
11
10
0
11111111
1110
10100
1110
10000
101
11
101
100
11111110
1000
1001
10
0
11111111
11
1
0
0
11111011
11110101
11110100
11110111
1
111
1010
1010
1011
101
1
1000
1001
1
11
100
0
1100
11111010
100
1000
101
101
1001
1011
11111101
11111010
11111010
11111000
11110000
11101100
11110011
0
111
1101
11000
10001
101
1000
10001
11111100
11111101
11111010
11111111
100
11111101
10
100
11111110
111
1
110
101
0
11111011
11111010
11111001
11110100
11110000
11110110
10
110
10110
100000
10111
101
1000
1010
11111101
11111010
11111101
0
111
101
111
10
10
1
0
101
100
11111110
11111101
11111011
11111011
11111000
11110101
11111001
1
1011
100000
11010
10110
1010
110
10
1
0
111
11111111
111
1000
111
10
0
1
0
11
0
0
10
100
1
11111110
11111001
11110110
1
1101
11001
1101
10100
1001
11111111
11111110
10
1
11111110
110
101
1010
1001
11111101
10
11
11111111
0
10
1010
1101
111
11111111
11111111
11111101
11111001
10
1001
111
1000
11111100
11111111
11111010
11111011
11111011
11111101
0
100
11111111
11111001
101
0
11111110
11111110
11111100
0
100
1000
10
10
11111100
11111010
11111110
11111110
1000
1111
1001
1
11111000
11111010
11111101
11111100
11111100
11111111
111
11111101
11111101
11111000
1010
101
11111110
11111000
0
1
110
11
10
101
0
11110110
11111100
10
1101
1001
11
11111100
11111110
11111010
11111011
11111001
11
1
0
0
11111100
11111111
1101
11
0
11111110
110
1000
1010
100
100
11111111
11111000
11110100
11111101
100
1010
10
11111111
11111001
11110111
11111000
11110110
11111100
11111011
11
11110111
111
11111011
11111110
1100
11111111
110
100
1100
11
11111010
101
101
11111110
11110111
11111100
100
1001
11
11111110
11111110
11111110
11111101
11111000
11110101
11111101
11111000
11
11111001
11111011
110
100
1010
11111111
0
11
100
101
101
1001
100
11111101
11111010
0
101
10
0
0
11
0
11111011
11111010
0
11111110
11111010
1
11111110
0
11111110
1
1011
1001
11
0
1
1
11
101
11111011
11110110
11111011
11111110
10
11111101
11111101
11111110
0
11111101
11111110
11111110
110
11111011
11110100
1000
11111100
11111111
11111100
0
1110
10000
0
11111111
0
100
0
11111101
0
11111110
0
0
10
1
11111111
11111111
11111100
0
11111011
11111111
0
11111111
11111100
10
0
11111111
11111110
11111001
11
1110
1
110
0
110
0
1
10
100
0
0
1
1
11111001
11110110
11111011
11111010
11111010
1
0
0
11111100
10
0
0
0
0
11111011
1100
100
10
100
100
11
1
11
11111110
100
111
11111110
11111000
11111000
11111111
1
11111111
10
101
100
110
101
11111011
0
0
0
11111011
11111101
1010
1001
101
1
100
11
11
100
11
1000
101
110
110
1000
111
111
111
100
10
11111101
1
0
11111011
0
0
0
0
11
11111100
11111101
1010
0
0
101
10001
1101
1011
1010
101
1011
10010
10000
1100
10100
1100
101
11
11111111
0
111
1000
0
0
0
0
1
11111100
100
1110
1010
111
11111110
100
1001
110
1010
11111110
11111100
11111101
11111011
1
1000
10000
1000
1011
11111010
0
0
0
11111111
0
0
0
0
0
1
11111100
0
0
0
1000
1100
101
10
0
11110110
11111100
11111110
11111011
11111011
11111001
11111111
110
100
0
0
0
0
