0
1
0
0
0
0
1
0
11111111
1
0
0
0
0
11111111
11111111
0
0
11111111
1
0
0
1
0
0
0
11111111
0
0
0
1
0
11111110
11111011
11110111
11111001
11111000
11110100
11110011
11101111
11110100
11110101
1
11110000
11101101
11101110
11110001
11111001
11110111
11111010
11110110
11111001
0
0
0
0
0
0
0
11111011
11110111
11111110
11110011
11110011
11101101
11101001
11011100
11100000
11101011
11110111
11111110
11110111
11101101
11110000
11101000
11110001
11111110
0
11111100
11111000
11111101
11111000
0
0
0
0
0
11110110
11111001
0
11111100
11110110
11110010
11111000
11110100
11110111
11110010
11110100
11111101
11110010
11110000
11101101
11101010
11110001
11110101
11111101
0
11111010
11111000
0
0
0
1
0
11111010
11111110
11110111
10
11111100
0
0
11111100
11110110
11110111
0
11
11110100
11110000
11110101
11111001
11111101
11111101
11111110
100
111
110
100
11111101
11111000
11111011
0
0
11111000
11111011
11111101
1101
100
0
111
100
11111111
11111101
11111101
11111110
11111101
11111110
11110111
0
11111110
11111010
0
11111000
11111010
11111000
11111001
11111101
11110110
0
0
11111100
0
0
1
1000
11
100
1
10
11111101
11111110
0
11111111
11111110
11111010
11111111
110
100
101
11
1
11111111
11111100
11111010
11110111
11111111
11111101
101
1
1
11
110
0
110
11
1
10
11111101
11111110
0
0
11111011
11111000
11111101
11111111
1
101
10
0
11111101
1
11
1
11
11111001
11110111
11111110
0
11111110
100
1001
1000
0
11
10
0
0
11111110
11111000
11110101
11110111
11111011
0
101
11111111
11111110
11
11111011
11111101
11
110
0
11111111
101
110
11111101
11111001
101
110
10
0
11
1
1
1
0
11111010
11110110
11111000
11111011
100
101
0
10
11
10
0
11111101
11111110
11111010
111
100
10
11111101
10
0
100
0
0
0
11
0
11
0
11111000
11110010
11110111
10
1000
110
100
0
0
11111101
11111011
11110110
1110
11110011
10
1011
11111011
1000
0
11111111
10
11111111
10
0
0
110
11
0
11111010
11110100
11111100
1001
1100
111
100
10
11111110
11111110
11111110
11110100
110
11110010
0
111
1100
10001
11111111
0
0
100
0
0
0
1000
101
11111101
11110110
11110101
0
110
1001
111
101
1
0
10
11111110
11110110
11110100
11110110
0
11111110
0
10101
11111100
10
0
101
100
0
1
111
0
11110110
11101111
11110101
0
101
1000
101
0
111
101
0
11110011
11111001
11110110
11111100
11110110
11111011
11111110
1000
111
1
100
0
1001
100
110
10
11111010
11110000
11110001
11110110
11
111
111
1000
1001
1001
100
0
11111101
11111110
11111111
11110111
11111000
10
11111100
11111101
1011
0
0
101
1000
1000
1001
11
11111011
11110011
11110011
11110111
11
101
1001
1010
111
1000
11
11
11111010
11110100
11111110
11111010
100
1001
11110111
0
0
0
11111111
11
1011
1010
100
11111111
11111010
11111010
11110111
11111110
110
111
1001
1010
1000
1000
100
11111111
11111011
11111011
11101000
11110010
11111110
11111111
11111100
100
11111111
1
0
11111111
101
100
11111110
11111101
11111011
11111011
11111100
0
1001
1001
1000
1101
1
11
100
11111111
11111111
11111001
11111000
11111010
11111100
1
0
100
11111101
1
0
0
1
11111111
11111010
11111001
11111001
11110110
11111011
1
100
1010
1001
11
101
101
110
0
11111011
11110110
11111000
101
0
0
10
11111110
0
110
0
10
0
0
11111101
11110111
11111011
11110110
11111000
10
1
101
10
11111100
10
11111111
11111101
11110110
11110011
11111000
1
11110111
11111111
0
100
11
11111111
0
0
11111100
11111101
11111110
11111101
11110111
11110111
11110110
11111100
11111100
11111010
1
11111111
11111011
11111000
11110010
11110100
11110111
11110111
11111111
0
0
11111101
0
11111111
11111011
11111100
0
100
11111010
11111100
11111101
11111110
11111100
11111011
11111010
11110111
11111010
11111011
0
11111010
11111010
11111010
11111001
11111101
11111101
11111010
100
11111100
11110101
11111110
0
0
11110111
11111011
11111111
11111010
11111110
10
10
10
10
11111110
11111010
11111010
11111100
11111111
11111111
11111110
11111011
11111110
11111110
11111011
0
11111001
101
11111110
11111110
11111111
0
0
11110001
11101111
11111100
11111010
11
100
0
11
0
11111010
11111000
11110101
11111001
11111010
11111000
11111011
11111100
0
11111101
11111111
0
11111010
10
11111000
11111100
0
0
0
0
11110111
11111011
0
10
10
1
100
0
11111001
11110101
11111000
11110110
11110111
11111010
101
11
110
11
0
11111011
1000
0
11111101
11111010
1
0
0
11111110
1100
11111101
11111110
101
11111111
11111100
11111110
11111110
11111110
11111110
11111011
10
11111110
0
11111110
1
0
11
0
11111100
11111001
11111101
1
11111010
1
0
11111111
1
11
110
110
10001
1100
1000
111
10
10
11111111
11111100
11
1
1
0
11111111
11111011
0
10
11111111
1
100
11111110
11111111
0
0
0
0
0
0
0
10
1000
111
1000
10
0
111
1011
110
1110
10001
1110
1000
1101
101
111
110
1
0
0
0
0
