0
0
0
0
0
0
0
0
11111111
0
0
0
11111111
0
0
11111111
0
11111111
0
0
11111111
0
0
1
0
0
0
0
0
0
0
1
11111111
0
11111101
11111011
11111001
11110110
11110000
11111000
11110111
11111111
1
11111111
1
11111100
11110001
11101111
11101110
11110001
11111000
11111010
0
0
0
0
11111111
1
11111110
11111111
11111101
11110111
11111110
11101101
11101010
11110000
11110010
11101101
11100010
11101111
11110110
11110101
11110000
11101000
11111101
11111011
11111111
11101100
11111011
11111111
11111011
100
1
0
0
0
111
0
1
0
1
1000
101
11111011
11111111
11111011
0
10
11111111
11111111
11111101
0
10
11111110
10
11
11111001
11111101
11
0
11111100
0
1
1
110
1010
1000
0
11111101
0
11111101
11111001
11111111
100
100
1000
1010
101
0
11111100
0
11111110
11110101
11111111
0
11
1
11111101
11
11111001
0
0
11111010
10
11111110
10
11111000
11111100
10
1
10
1111
1000
110
1
11
0
11111111
11111110
11111111
0
11111101
11
1
1
11111001
11111011
11110111
0
0
101
11110111
11111111
110
11111000
1
111
111
1110
1101
1000
1010
111
0
110
110
101
111
100
11
1
10
101
11111101
11111111
11111011
0
1001
10
11
0
101
11111101
11111111
10
1011
1111
1001
1010
110
0
10
100
11111111
100
1011
110
1000
11111111
110
101
101
11111111
11111100
11111000
11111011
10
0
1010
110
10
10
101
10
100
101
1000
1
10
11
1
11111011
1000
111
11
101
100
1010
1001
10
10
11
0
111
11111101
11111011
0
1011
1000
11
100
11
110
1010
10
0
11111111
11111111
0
0
110
110
1
0
1011
10111
10011
1000
110
11
1
1
10
11110010
11111110
101
11
11
11
101
111
1000
11
11
100
0
0
10
1000
110
1
1
11111111
10001
10100
0
11
100
0
11111011
11111011
11111111
101
11
0
1
101
11
110
1100
1011
1001
101
10
0
101
1010
0
10
11111110
11
100
10000
100
1110
1011
11111111
1
11111101
11
10
0
11
1
101
1
11
110
1101
1010
1001
101
0
1000
110
100
0
11111111
11
0
0
10
1110
1000
0
100
0
10
1
1
0
1
10
0
11111100
0
110
101
101
1
11111110
100
10
11111111
11111111
0
11111111
11110110
11111001
1
0
11111000
11111111
0
0
11111100
11110110
11111111
11111110
11111011
11111001
11111000
11110110
11110111
11110111
11111111
100
11
11111111
11
10
10
11111100
110
11111001
11111010
11111000
11110111
11111101
11111001
0
100
11111001
11110100
11110111
11111100
0
11111110
0
11110110
11110100
11110010
11110110
11111010
1
11
11111111
0
1001
10
100
11
11111011
11111111
11111100
11110111
11111100
11111001
0
101
11110110
100
0
11111110
0
0
11111110
11111011
11111001
11110001
11111000
11111010
0
11111101
11111110
11111111
0
0
0
11111101
11111011
11111010
11111100
11110110
11101001
0
0
110
11111000
110
11111100
11111110
11111101
11111111
11111010
11111111
11111101
11111001
0
0
11111011
11111110
10
10
11111110
11111110
11111111
11111011
11111010
11111110
11
0
10
101
1000
11
11111111
100
11110110
10
0
11111111
11111110
0
0
11111111
11111010
11111000
11111011
11111010
11111011
11111010
11111010
11111010
11110110
11110011
11111000
11111110
11111100
11111101
101
11111011
0
10
11111110
11111011
11111110
111
11111111
11111101
0
11111011
11111110
11111001
11111111
0
0
11111100
11111101
11111011
11111100
11111111
11111010
11111111
1
0
0
10
11100100
11
0
11111010
11111110
11111100
11111011
101
0
10
11111101
11111111
0
11111110
11111111
101
1
11111111
11111101
11111101
11111100
0
0
101
0
11111011
11111110
11111101
11110001
101
11111111
11111001
11
11110111
11110111
11111110
11
11111011
11111101
0
1
11111110
11111110
1
100
11
10
11111111
0
0
11111111
11111100
11111001
11110111
100
0
11111101
10
0
0
11111100
11111000
11101111
11111110
10
10
0
11
11111010
11111101
11111111
111
1011
11
11
11
101
0
11
11111011
11110110
1
10
1000
11111110
100
0
11111111
10
11111010
11111000
10
10
111
101
1000
10
11111110
110
1100
1100
101
1010
1000
11111111
11111110
101
10
11111110
1111
111
1010
0
11111111
0
0
11
110
1001
1110
100
11111100
111
10011
1100
1001
10011
10011
1101
101
1010
1011
0
10
1
1010
1001
10001
111
100
11
11111111
11111111
0
0
100
11111010
11
11111100
10
10001
11000
1001
11
1110
10000
1110
111
1011
1100
1100
1111
1
110
1000
110
100
0
11
0
0
1
0
10
11111011
11111011
11111001
11111110
11111110
110
1111
1010
10011
1000
10100
1100
1001
10011
10110
10010
10000
1100
1010
11
11111010
0
0
0
0
0
11111111
0
0
1
0
0
1
11111100
1001
111
11111100
0
1011
0
1000
1001
1000
101
11110111
11111011
11111111
11111111
0
0
0
1
