0
0
0
0
0
11111111
0
0
11111111
1
1
0
0
0
1
0
0
0
0
0
0
1
0
1
0
0
0
0
0
0
0
0
1
1
10
0
11
101
1001
1000
1000
11111101
11110110
11110100
11110010
11111000
1
111
1100
1001
110
101
0
0
0
0
0
0
0
1
1
1
11
111
1101
1111
11
11111110
0
100
0
11111100
11111110
1100
10101
10100
10010
11001
10010
1111
1011
1
0
11111111
0
0
11111001
11111001
11
1000
1110
11111110
11
0
11111111
1
11111110
100
110
101
1000
110
10
11
10
1011
11
0
1110
1000
110
0
0
0
11111000
11111001
11
111
1011
1000
100
1010
1111
1010
1101
101
11111010
11110110
11110111
11111110
11111101
11111100
11111101
0
101
100
1101
10010
1001
1000
0
0
11111010
11110101
10
100
10
11111101
1101
10001
11000
11010
11001
1100
0
11110111
11111111
0
11
11
11
0
11111101
111
111
1100
1001
1000
11111111
11111111
11111110
11
11111011
1110
1001
11111111
110
10011
11000
11010
10011
1011
0
111
111
10
100
11111101
11
11111110
1
101
100
10000
1100
1011
0
11111111
11111101
101
1
1011
1110
10
1010
1101
11010
10111
1101
1001
11111011
111
10
100
101
11111110
10
11111111
1
0
111
1010
1101
1010
100
1
11111110
11111001
1001
1010
100
101
1011
1010
11000
11100
11010
1001
11111101
0
10
1
101
10
100
101
110
1001
10010
10100
0
10
0
0
11111110
11111100
111
1010
1011
10000
1011
10010
10100
11010
10111
10
0
11111001
11111010
0
100
111
1000
0
110
111
111
1010
11111011
11111110
0
11111011
11
11
11111111
0
1110
1000
10000
1010
10
10000
10010
11
11111100
11110101
11110110
11111000
11111101
10
1
101
100
1111
11001
11
11111101
11111010
0
11111111
0
0
11111011
11111111
11111101
11111110
1
0
10
10010
1101
11
11111010
11110010
11111000
11111011
11110011
11111001
11111111
0
11111011
110
1000
1
11110110
11110111
1
100
11111100
11111011
11111100
10
11111001
0
1000
11
1011
10100
111
110
11111000
11111001
11111001
11111101
11111101
11
11111101
11111100
11111010
10
111
0
1
11111010
11111101
11
11111010
11111101
11111100
1000
111
111
1001
1111
11000
111
1000
0
11111011
11111111
11
0
110
1001
11110110
11110111
11111000
11111011
1
11111111
110
11111110
0
100
11111001
11111001
11111001
1010
1101
10001
1001
1010
1001
0
0
11110111
11110101
11111110
11
1000
10
11111100
11111011
11110101
11111010
1001
1000
11111110
11111100
0
0
0
11111000
11111101
11111000
1000
1000
100
11111111
11111101
0
11110011
11111001
11110101
11111010
0
1
1011
1001
1011
111
110
11111111
10000
1011
11111111
11111101
0
0
11111100
11110111
11110100
11111101
0
1
10
11111100
11111000
11111010
11111001
0
11110111
11111001
0
111
10101
10001
111
1
0
11
110
1
11111101
110
11111100
0
11111001
11110010
11111100
11
1000
1000
100
1
11111110
0
0
11111101
11110001
11110110
101
10010
10011
1001
1
0
1100
0
11111110
0
11110111
11
11111011
0
11111010
11101001
11110010
1010
11000
10101
1001
111
1
10
0
11111101
11110011
11111011
10000
10101
101
11
11111100
0
10
11111011
0
11111111
11110110
11111110
11111000
11111110
0
11110111
11110111
11111010
1100
1010
11
100
100
11
10
11111011
11110101
11
1101
1011
1100
1110
1101
1100
110
10
0
11111011
11111001
11111100
11110111
0
1
11110110
11111001
11110010
11111110
0
11
11111110
11111111
100
0
11111010
1
100
111
0
1001
10000
10001
10101
1101
11
11111111
11111000
11110100
11111011
11111101
11111111
11111010
11110110
11111101
11111011
11111011
11111110
0
1001
11111110
10
110
110
101
0
11111110
0
1011
1100
1001
10000
1100
100
11111110
11110110
11110000
11111000
1
11111110
11111100
11110110
11111101
11
11111011
0
1
10
11111011
101
1000
1100
1
11111000
11111111
110
1011
10
110
11
1101
1111
11111111
11111010
11111001
11111000
0
0
0
11111100
11111110
1101
11111101
11
10
11111011
0
110
1001
11
11111110
11111111
0
11111011
0
11111101
10
11111110
0
11
11111110
11111000
11110111
11110101
0
1
11111111
0
11111111
1000
111
1000
101
11111111
111
1010
1010
1000
111
100
1011
1100
0
11111110
11111110
11111111
0
0
11111110
1001
11111010
11111010
0
0
11111111
0
110
111
100
1001
1001
1
1001
10001
10110
10000
1100
1111
11010
10100
10101
10111
10000
1010
1100
11
1001
1000
0
11111111
1
0
0
1
0
11111101
1
11111111
11
1001
10001
1001
1001
10010
1110
1100
1001
1011
1001
1010
1010
11111100
11111110
0
0
0
0
0
0
0
1
11111111
0
1
0
11111111
11111111
11111110
0
11110110
11111001
101
1
11110101
11111101
11111110
110
110
11
11
0
1
0
0
0
0
0
