0
0
0
0
1
11111111
0
0
0
0
0
1
0
11111111
11111110
0
0
0
0
11111111
0
11111111
0
0
0
0
0
11111111
0
11111111
11111111
0
1
0
1000
1001
1011
1101
1011
10010
10011
101
11111100
11111001
11110100
11111011
1010
1010
1101
111
111
111
11111111
0
0
0
0
0
0
0
11
11
1001
1111
10100
100
1010
1
11111111
11111101
11111101
11111111
0
111
10001
10100
10110
1011
1011
1101
1000
11111110
0
0
1
0
11111010
11111100
111
1010
10001
1001
0
1100
111
1001
11111100
11111011
1001
1010
10000
1100
1001
1000
111
1100
111
1111
1110
1000
1000
1
0
11111110
11111010
11111001
0
1011
10101
1111
10110
100100
100000
10111
10100
10011
1110
10
11
1001
111
0
0
11111011
11111010
0
101
1110
1010
1000
11111111
0
11111110
11
11111111
11110111
11110110
11110100
11111110
11
1010
1000
0
1
10
11111111
11
111
110
10
1001
11111100
11111011
10
1000
1010
1000
1000
1
11111110
11111010
100
11111111
11111001
11111010
11111010
1
0
11111010
1
0
11111011
11111110
101
101
0
111
11111110
11
10
11111100
11111100
111
10001
1110
1001
11111101
11110001
11111000
11111110
10
101
0
11111110
11111110
11111011
11111111
0
11111011
11111010
11111110
101
0
11111111
100
11111100
11111010
11111101
0
11111011
100
10011
1011
1010
1000
10
11111011
11111011
1010
11
11111101
11111010
11111000
11111101
0
11111010
11111011
11111000
11110111
11111001
11111111
11111111
11111111
0
11111101
101
11
11
1110
100010
110
10
11111011
11110110
11111111
11111000
11111111
0
11111011
11111001
11111100
11110111
11111101
11111111
11111101
11111011
11111000
11111000
11111111
11111111
1
1
11111011
11111111
11111111
11111110
10
10011
11111101
11111001
11111011
11110110
10
1101
11111100
0
0
11111010
11110110
11110010
11111011
0
1010
100
100
11111000
11111011
0
0
0
11111100
0
1
1011
10110
110
11111010
11110111
11110111
100
100
1111
101
111
101
11111100
11110111
11111010
1
110
10110
10001
11
11111100
11111101
11111111
0
10
0
1000
1001
1010
10011
111
11111111
11110101
11111100
11110011
100
10011
10010
10001
1010
0
1000
10001
11101
11101
11001
1111
0
11111001
11111101
1
11111110
11
100
100
1101
1011
11001
11111111
11111010
11110111
1
11111101
0
10110
1100
1011
1010
10101
11101
100000
100001
10100
1010
0
0
0
11
11111101
11111000
10
110
10
111
10
1
11110111
11111011
0
10
11111000
10
1011
0
10011
10101
10111
11010
10011
110
11111100
11111010
11111101
11111010
11111110
0
11111001
11110111
11111001
1
11111001
1
101
0
11111100
11111001
11111110
0
11111011
11111000
10
1100
1010
11
110
0
11111111
11111011
11110011
11111011
11111100
11111011
0
0
11111011
11111100
100
11111111
11111100
11111011
11
0
11111110
11111101
11111110
11111011
11110100
11111001
11
1
101
11111111
11111111
11111111
0
11111110
11
11
11111111
11111100
10
11111101
11111110
11111100
11110111
11111101
11111101
11111110
11111110
11111010
0
11111100
11111010
0
11110001
0
1010
11111110
110
0
0
0
11111111
11111110
1
11111110
11111011
11111010
11111110
11111100
0
11111001
11111001
11111100
1
11111111
11111101
10
11110011
11110100
11111100
0
11110110
11111111
11111110
0
101
1001
11111111
11111010
11111101
11111110
11111011
11111100
11111100
10
11
0
10
11111011
11111000
11110111
101
1001
1001
101
11110011
11111000
11111001
1
0
11111001
11111011
11110011
10
0
11111111
0
11111111
0
10
0
100
110
11
0
1100
1111
1
11111110
10
111
1010
1
11111001
1
11110111
0
0
11111011
11111000
11111101
1000
101
101
100
0
101
11
1
101
0
100
101
1110
1110
11
1000
100
101
1000
101
110
11111110
11111110
11111110
11111110
11111011
11111011
1
11111010
11111110
11
1011
10
111
1010
110
110
1
100
111
10000
1101
1011
1011
11111111
0
110
11111101
11111011
100
0
11111111
11111100
11111001
100
11110111
11110111
11111101
0
110
0
101
1010
111
110
0
0
11
111
1110
11
0
110
1001
1110
101
11111111
11
11111111
0
0
101
1111
11111000
11111010
11111000
11111111
101
0
100
10
10
11
100
101
111
1100
1110
10010
1010
111
11
0
11110111
11111100
0
0
1
0
11111010
11111001
11110001
11110111
11111011
1
101
1000
110
11111111
101
1100
1110
1000
1101
1110
100000
11000
1101
0
1100
1
11111110
11111100
11111000
0
0
0
0
11110011
11111010
101
111
100
10
1001
1101
100
11111100
1000
1001
100
1
1111
10101
1101
1101
10100
10000
1101
0
11111010
11111110
0
0
11111111
11111111
11111101
1001
110
101
101
11111100
0
11111111
11111010
1100
1111
1100
101
111
1100
1000
1110
10010
10010
101
100
11
11
11111111
11111111
1
0
0
0
0
11111101
10
0
10
1
11110011
11111011
0
11111100
1
1
11101011
11110010
11110111
11111011
1100
1101
1000
11111111
1
0
0
0
