0
0
1
0
11111111
0
1
0
0
11111111
0
0
11111111
11111110
11111110
11111111
0
0
0
0
11111111
0
0
0
0
1
0
1
0
0
11111111
1
0
0
0
11111111
11111100
11111011
11110110
11111010
0
0
101
11
11111100
11101110
11110111
11111100
11111011
11111100
11111010
11111101
1
0
0
0
0
0
0
0
11111101
11111011
11110111
1
11110001
11101101
11110100
11111000
11110100
11111001
0
11
100
11
1
100
0
11110110
11111100
11110100
11110101
11111000
11111111
0
0
11111111
11
0
0
1
11111011
11
11111010
11111010
101
1
0
11111111
0
10
1001
1100
1010
1001
1000
100
0
11111101
1
11111101
11111100
0
0
11111110
1
10
100
11111011
11110111
0
0
11111110
11111100
11111101
10
11111111
1
101
110
110
10
0
11
10
0
10
1100
11111001
11111100
11111011
0
1
11111000
11111111
11111100
11111100
101
0
11111101
11111110
11111011
11111101
10
0
10
11111111
11111011
11111111
11111111
1
100
11111111
0
11111101
110
11111111
1
11111011
11111111
11111110
11111111
11110101
11111110
0
11111010
100
1
11111101
11110111
0
0
11
11111101
11111110
11111110
11111111
11
0
101
100
11111101
11111111
0
1111
11
11111101
11111111
11110110
11111101
11110100
0
11111101
11111010
11111110
11111010
11111101
11111111
11111011
11111111
11111101
0
100
11
10
11
0
11111011
11111011
0
1000
11
1111
100
11111100
11
11110110
100
0
0
100
100
0
11111101
11111111
11111011
11111010
11111001
11111100
11111000
0
10
1
10
0
11111101
11111110
1
0
11111110
1100
10101
1000
11111111
11111111
0
1000
11111100
11111010
1
11
0
11111100
11111010
11110100
11110101
11111110
110
101
10
11111100
11111111
10
0
1000
0
11111010
1
111
1001
11111100
11111101
1
11111011
11111110
10
11111100
11110111
11111100
11110111
11101111
11110010
11110010
0
111
10101
1100
100
11111100
0
11
10
10
1
1
1
11111100
11111011
11111111
11111011
11111110
101
11111111
11111110
0
11110110
11110111
11110111
11110110
11111100
1
10010
11111
11101
1011
100
1
11
0
0
110
10
1
110
11111111
111
110
11111101
11110011
1
11
11111100
11111001
11111001
11111000
10
1000
10100
100100
101000
11110
10000
110
10
100
10
0
11
1
110
1000
11111100
11111100
100
101
100
11110101
11111011
111
10011
11
1100
10100
11000
100000
101100
101010
1111
10
110
101
1
100
11
111
1001
10
11111111
11111011
11110110
0
11111101
11110111
11
110
11111110
10000
11110
11001
11110
11111
101101
101001
10001
110
11111110
110
1000
1000
100
101
0
100
101
1
0
0
11111011
11111100
11110100
11110111
11111110
100
11
10100
10000
100010
100111
100010
10110
1001
11111110
0
10
10
11
1
100
1
0
11
11111110
0
1
10
11110101
11110101
11111101
11110101
11111000
110
100
10001
11101
1101
1110
1000
100
11110111
11110111
11111101
11111111
11111101
11111110
1
100
10
10
11111011
1
0
11111111
11111110
11111101
11111010
11110110
11110011
0
111
1
100
1011
10
11
110
11111111
11110111
11111010
11111101
11111101
11111110
0
10
100
100
0
100
101
110
101
11111110
0
11111001
11110010
11110010
0
0
111
11111110
10
10
11111111
11111101
11111111
11111111
1
0
11111101
11111110
10
10
11111011
11111101
11111110
0
1
101
11111111
11111010
11111011
11111110
11111000
11110110
1
0
1010
101
11111110
100
1
11111110
11111101
11111011
11111011
11111001
11111010
11111010
11111101
11111110
11111011
11111110
110
100
1
100
11111011
11111111
11111100
11111110
11100011
11111011
1
1
11111111
11110111
11111011
10
11111100
11111101
11111011
11111100
11111111
11111011
11111010
11111010
11111011
11111100
11111111
100
110
0
11111011
11111110
1
11111101
11111010
0
11101010
110
0
11111101
11111101
11110111
11111011
11111101
11
0
11111110
1
11111111
11111110
11111111
11111111
11111101
11111110
11111110
11111101
11111011
11110111
11111011
11111101
1
11111100
11111100
0
11110111
10
10
1
11110100
11
0
11111110
0
11111101
0
11111110
0
0
10
1
11111110
0
11111111
11111011
11111100
11111100
0
11111101
11111111
1
11
0
101
1
0
0
1001
1111
10
11111001
11111100
0
10
11111110
10
11111110
0
100
11
11
10
11111100
11111001
11111111
1
0
11111010
11111000
10
11111110
1000
0
0
0
0
111
0
11111100
11111110
1
0
11111111
1
0
10
110
0
1
11111101
11110111
11111110
11111011
11111111
11111111
0
11111100
11111000
11110011
0
0
0
11111111
1010
11111011
11110001
1000
11111111
11110101
11110100
11111111
11
10
0
10
11111000
11110111
11110110
0
11111110
1
10
1001
110
10011
10011
11111010
11111010
0
0
0
0
0
11111100
0
11111001
11111010
11111001
11
100
101
110
11111011
11111110
1
1
1000
11111111
0
111
10011
1000
111
10
11111011
0
0
0
1
1
0
11111000
11110111
11101101
11011111
11011110
11010101
11011110
11010110
11010111
11011011
11110101
11101001
11011010
11100110
11111111
0
1000
1000
111
11111110
1
11111111
0
1
