0
0
1
0
11111111
11111111
11111111
11111111
0
0
0
0
1
1
0
1
0
0
0
0
1
0
0
0
0
11111111
0
0
1
0
0
0
0
11111111
0
11111110
11111100
11111100
11111001
11111100
11111100
11111101
11111010
11110011
11110101
11110101
11111101
11111011
11111001
11111011
11111001
11111011
0
0
11111111
0
0
0
0
11111101
11111100
0
11111101
11111101
11111001
11110101
11110010
11110010
11110101
11101010
11101010
11110000
11101111
11101110
11101110
11110100
11110100
11111111
11111100
11111001
1
11111100
1
0
1
0
1
11111011
11111011
0
11111111
11110110
11110000
11101111
11110010
11110111
11110001
11101100
11110000
11100011
11100000
11110011
11110000
11101110
11110111
11110100
11111000
11111000
110
0
1
0
0
0
11111111
11
1
11
11
0
11110110
11110111
11101011
11100101
11101100
11101100
11101000
11100111
11101111
11110011
11101101
11110101
11111011
11111101
11111010
11111101
11111110
11111100
11111010
11111110
0
0
11111100
11111110
11111010
11111111
11111100
11111011
11
11111111
11111100
10
11111110
11111100
11111100
11111101
11111001
11111011
11111001
11111000
11111001
11110001
11110111
0
1
11111011
11111011
10
0
11111011
11111111
11111111
100
1
11111000
11111100
11
10
0
11111101
0
11111101
11111100
11111010
11
1010
1
11111011
11111101
10
10
11
1
11110110
100
11
0
11111011
11111000
111
1100
11111100
11111001
0
101
0
11111111
11111100
11111111
0
11111011
11111110
1
101
11111111
1
11
10
11111100
101
1
0
11111001
1
11111001
11111000
11110110
11111010
11
0
0
1
0
0
1
0
11111001
11111000
11111011
100
11111110
0
11
11111110
11111101
0
0
0
1
10
11111011
111
11111101
11110011
11111100
11111010
101
11111111
11111101
100
11
11111100
1
1
11111010
11110111
0
11
0
0
0
11111110
0
0
0
0
10
11111100
11111010
111
11111101
11110010
11111000
11111110
11
11111111
11111101
0
11111101
11111101
1
0
11111100
11110111
0
11
1
1
0
0
11111101
11111101
11111110
1
11111110
101
11111001
100
110
11110101
0
11111001
11110010
1
11111100
0
0
0
100
1
1
11111000
11111100
1
110
111
11
100
100
0
11111101
11111101
11110100
0
11110110
11111100
101
10
11111111
0
11110110
11111100
0
11111011
101
11
11
1
0
1
0
1000
1000
11
1000
111
100
11111101
11111110
11111110
10
11111100
11111001
11111100
11111101
11
11110111
11111011
0
11111011
11
1000
10
11
100
11
10
1001
1000
1001
1001
1001
111
100
101
100
111
0
11111100
11111101
11111001
11111001
11111101
11
11111100
11111101
1
11110111
11111100
100
10
100
11
0
101
1010
110
1001
1011
110
1001
101
11
100
11
11111110
11111010
0
11110111
11111011
100
110
0
100
100
11110011
11111011
11111100
11111110
1
101
100
110
11
10
110
110
1000
1011
101
11111111
11111110
11111111
11111011
11110110
11111100
11111110
100
111
11111100
11110110
0
1000
11111011
11111110
11111011
11111000
11110100
11111011
11111110
11111111
11111110
11111111
1
101
100
11
11111110
11111110
11110110
11111010
11111111
0
11111100
11110110
10
0
11111101
11111010
11111101
1011
100
11111010
11110111
11110111
11101111
11101111
11110010
11110101
11110100
11111000
11111110
11111111
11111110
11111010
11110101
11111001
11110101
11110111
0
11
1000
11
0
11111011
11111111
11110111
11111101
11
11111100
11111101
11111010
11110110
11101111
11110000
11110110
11110011
11110101
11110111
11111010
11111000
11110110
11110011
11110100
11110000
11110001
11110100
11101100
11110110
11111100
1011
110
0
11111000
11110101
0
11111011
11110101
11111100
0
11111010
11111000
11110110
11111001
11110100
11110000
11111000
11110110
11110111
11110100
11110111
11110111
11111001
11110111
11111001
11100100
11110000
11110110
100
100
0
11111100
11111110
11100100
11110100
1
11111001
1
0
0
0
11111110
11110111
11110100
11110001
11110010
11111011
11111001
11111011
11110101
11110100
11111000
11111111
11110010
11111011
11111010
11111101
11111001
1
11110110
11111100
11101110
11110110
100
11111110
11111100
10
11
11
11111110
11111001
11110110
11110000
11110111
11111110
11111100
11111100
11111011
11111001
11111011
11111111
11111111
10
11111010
11110111
11111111
0
0
11101110
11111011
1
11111111
10
10
11111111
10
110
11111110
11111111
0
11111100
11111101
10
1
0
0
11111111
11111100
11111111
11111101
10
11111010
10
11111111
11111111
0
11110100
11110100
1
11111010
1
1
11111111
110
1
11111111
101
0
1
1
1
10
10
111
0
11111110
11
1
1101
0
0
0
0
0
11111000
11101111
100
1
1
11
1
11
0
11111001
11111001
11111010
11111111
0
11111101
0
10
10
11111111
110
0
110
11111110
111
10
0
0
11111111
10
1010
11111111
11111101
11111101
11
10
0
1
11111100
11111001
11111001
11111111
11111110
11111110
1001
0
11111000
11111010
11111111
0
10
1
100
11111100
0
0
1
0
101
1010
1
1
0
11111101
101
10
1
100
1
1001
1
101
1011
11111011
11110101
11110110
11110111
11110110
11111011
11
11111110
1
0
1
11111111
0
0
11111101
11111101
101
10
1
11
11111101
0
1
11111101
10
1001
10
1
11
10
11111011
11111100
11111011
11111110
0
0
11111111
1
