0
0
0
0
1
11111111
11111111
0
0
11111111
0
0
11111101
11111011
0
0
0
0
0
0
0
1
0
0
0
0
0
0
11111111
0
1
0
11111101
11111011
11110011
11110001
11110011
11101100
11101111
11100110
11100010
11110110
100
11111110
0
11110110
11110101
11110000
11110000
11110100
11110111
11111001
0
0
1
0
0
0
11111111
11111000
11110110
11111010
11110001
11101011
11110100
1
11111110
11111011
11111001
11111011
11110111
11110111
11111110
11111000
11101110
11100110
11110111
11110111
11110111
11110111
0
1
0
1
0
0
100
11110110
11111011
11111011
11111000
11111010
11111010
11111111
11110111
11111100
0
11111101
11110111
11111011
11111001
11111010
11111110
11111001
11111111
10
110
0
10
0
1
0
0
11
100
11111101
100
101
100
0
101
11111101
10
11
11
1
11111100
11111011
11111011
11111101
10
0
11111100
10
110
1010
1010
1010
11111001
11111111
0
11111111
1010
101
1001
1000
101
111
10
0
11111101
11111011
11111010
11111011
11111010
11111011
0
11111101
11111100
11111110
100
110
11111111
1000
10100
1101
11111101
11111110
0
100
11111011
100
0
0
0
11111111
11
1
11111110
11111001
11111000
11111010
11111000
11111101
11111100
11111011
0
1
101
100
0
1101
1110
1001
11111101
0
0
101
11111000
101
1000
11
11
1
10
0
11111010
11111001
11111000
11110111
11110111
11111101
11111110
0
10
1
1
11111101
10
1010
1111
10101
1
11111101
11111001
100
11111110
110
110
11111110
11111110
11111011
11111101
11110110
11110101
11110011
11111011
11111010
11111101
110
100
11
0
11111111
100
10
100
1
1010
10111
1100
1001
0
0
110
11
110
0
0
11111010
11111000
11110100
11110011
11110110
11111010
10
1011
10011
1011
100
10
100
1001
10
11111111
110
1
10011
101
1
11111110
11
11111001
111
0
0
11110110
11110011
11110110
11111010
11111111
11111111
0
1100
10001
1010
0
1
0
10
0
11111100
0
101
100
1000
101
110
1
11110111
11111010
1011
11111111
11111111
11110000
11110101
0
10
11111111
10
100
1000
1111
11
11110111
11110011
11111001
11111110
11111100
11111101
11111110
0
11111101
100
11
11111111
0
11110101
11111100
11111111
0
1
11111000
11111111
100
11
10
100
1011
1100
1101
11111101
11110000
11110100
11111010
1
11111100
11111100
11111110
0
10
11111111
110
11111100
10
11110101
11111010
11111111
11111101
11111011
0
101
1010
101
10
1010
1010
1010
111
11111011
11111010
11111110
0
0
0
11111011
11111011
11111010
11
101
1011
1
11111010
11110110
11110101
10
11110111
11111000
0
11
100
11
0
1010
1010
101
0
11111100
11111111
101
0
11
0
11
0
11111100
1
10
1110
11
11111011
11111010
1010
1011
11111000
11111010
0
0
10
11
11111111
10
11
1000
11
11111110
11
11
11111101
0
10
10
0
11111110
11111011
11111110
1010
11111100
0
1
1011
1010
11111111
11
101
10
0
1
11111110
0
11111111
11111111
0
111
110
1
1
0
1
0
11111111
11111100
11111100
11111110
10011
110
0
100
1111
1000
100
11111011
1
11
11
0
1
11111101
11111100
11111101
100
1001
1000
0
0
11111111
11111101
11
11
101
1
0
10001
1001
11111100
1010
10001
110
0
1
0
11111111
10
10
0
11111100
11111110
11
1000
1011
1000
11111101
11111101
0
0
110
100
1
101
11111110
10
1110
100
11111010
11111101
11111110
11111101
1001
11111101
10
11
100
0
11111101
11111010
11
100
110
1
11111101
11111100
11111101
11111101
11
0
11111011
1
11111101
11
10
0
100
11111101
0
11111011
1
10
1000
100
11111111
10
11
11111101
0
10
0
0
11111111
0
11111111
11111111
101
0
11111100
1
10
100
1
100
1001
111
11111111
11110111
11111110
1
10
100
100
11
11
10
1
1
0
0
10
0
0
11111100
100
10
11111111
11110111
11111101
11111011
11111101
11
101
10001
11111101
11111010
0
101
11
111
101
10
10
11111110
11111011
11111011
0
11111110
11111111
0
11111110
10
11111101
11111110
11111110
11111101
11111101
11111001
11111010
0
0
100
1
11111100
11111110
0
10
110
101
11111100
0
1
11111101
11111101
10
100
11
0
0
1
0
11111100
0
11111100
101
11111111
0
1
1
11111010
11
11110110
11111001
100
0
0
11111100
11111001
11111111
11111111
1
1
11111110
1
11111100
11111100
0
0
1
100
10
11111010
1100
1001
11111111
1
0
0
11111000
111
11111110
101
11
101
11111011
11111001
11110111
11111111
1000
110
11111011
11110110
11110100
11111011
11111110
0
11111100
11110011
11111010
11110010
11
100
0
0
0
0
11111011
0
11111010
11110011
11111100
11111010
11111000
11111110
11110100
11111010
11111110
11110100
11101010
11101111
11110110
11110100
11110011
11110101
11110100
11110110
11111111
11
0
11111111
1
0
0
0
0
1
1
1000
1110
1110
100
11111010
10
0
11111100
0
111
11111101
11110111
11110110
11111100
10
10
11111111
0
0
11111111
0
0
