1
0
1
0
1
0
0
0
0
0
0
0
1
0
0
11111111
1
0
0
0
0
0
0
0
0
0
0
0
0
0
0
0
0
0
0
10
11
1001
1111
10000
10000
11000
11110100
11110101
11110111
101
100
11
110
11
110
100
0
0
0
0
0
0
0
0
11
101
10
111
10
11111011
11111011
0
111
0
11111110
11111010
11111010
1010
10000
1111
1011
1110
1010
0
11111101
11111010
0
1
0
0
11111010
11111010
11111111
111
1111
11111111
1001
11111100
0
1000
11111110
11110101
0
11
11
101
11111110
11111011
0
100
11111000
11111000
0
11111101
1000
0
1
0
11111000
11111001
11111000
100
101
10
11111111
11
11111110
0
100
11111111
11111111
1
10
111
11
11111100
100
100
11111011
11110111
1
1011
111
1000
0
0
11111010
11110111
11110101
11111111
11111011
1
1000
1000
101
111
1010
110
110
1
10
1101
1111
1
100
11111011
11110111
1
11111101
100
1000
1000
0
0
0
0
11110111
100
10
1010
1110
1010
101
11111101
1
0
100
110
1000
10000
1100
1
1100
10
0
11111101
1
1010
10
110
0
101
1
110
0
111
1010
10011
10101
0
0
11111110
11111010
11111010
11111100
10
1100
1111
1100
110
1000
11111011
11111111
11111011
111
101
10
111
101
110
11
11110110
1100
1100
1100
1001
1001
0
11111001
1
11111011
11111000
11110111
11
1111
1111
1011
1001
11
0
0
1
1110
1101
11111101
101
1
11111111
101
11110100
111
10
101
10
10
0
11111011
11111101
1
11110111
11111010
0
111
10000
1110
1100
1011
1
11111111
0
11111111
100
11111011
11111110
0
11111010
110
11101110
111
1001
10000
0
11111110
11111111
11111101
11111010
0
11111011
11111101
11111111
10
11
1110
111
1011
0
11110100
10
10011
11111110
11111010
11110111
11111111
0
11111000
11110011
1
100
10100
110
1
11111110
11111111
11
101
110
0
11110111
11111101
0
110
100
10
0
11110110
11
101
0
11111000
11110110
1
11
11111011
11110101
11111111
0
101
1010
11111101
10
111
111
110
1000
11111011
11110110
11111100
11111110
101
1010
11111111
11111010
11110111
100
1000
110
101
11111011
11111110
101
11111100
11110101
11111111
10
110
11111111
11111101
11
10100
1110
1110
110
11111010
11111000
11111100
11111101
111
110
110
1001
100
101
1111
1001
1010
101
110
100
11111011
11110110
11
10
1111
11111111
101
1101
1101
10010
1010
11111101
11110100
11110110
11111001
1000
1000
1000
10110
1010
1100
1110
11
11111011
11111010
101
100
11111101
11111000
11111001
11
1011
10001
0
0
1000
111
0
11111111
11110110
11101111
11111011
11111011
1000
1111
10011
11001
10000
1011
1100
1010
11111010
11111010
101
11111111
11111010
11110011
11111011
11111000
1010
10010
1101
0
0
11111100
10
11
11111100
11110000
11111100
101
10000
1110
10000
1010
111
100
1110
11111101
101
1010
111
0
11111010
11101111
11111100
11111111
1100
10111
10001
0
11111101
0
1010
10
11111100
11101110
11111101
1001
1000
111
11111100
1
1110
11
0
11111101
11111101
1011
101
1
11111000
11101001
11111001
1111
1111
10001
1110
11111011
11111001
1
1110
1100
11111110
11110100
11111110
1000
11111100
11111100
11110111
11111010
100
100
111
110
11110100
1011
0
11111100
11
11111111
10
11
10000
11111110
11110110
11110111
11111110
110
1011
1100
11111110
11111101
11111101
11111101
11111101
1
11111110
11111110
1
111
100
100
11110001
1010
11111011
0
0
0
101
11111100
100
11111100
11111100
11111110
11111101
111
11111111
11111111
0
11111101
11111100
11111011
11111101
0
11111011
11111101
0
11111100
1011
0
11111011
111
11111011
11111101
11111011
11110010
10
10
0
11111100
1
111
11111110
0
0
1
11
11111111
11111011
0
100
0
11111001
11111100
11111110
1
10101
1
11110110
0
0
11111110
11111100
11111001
11111111
11
11110111
11111111
11111011
11111101
11111110
111
11
11
1000
11111111
10
100
11
11111010
11111001
11110100
11111110
1010
111
1100
11111101
11111010
0
11111111
0
0
1001
1011
11110100
11111011
110
0
11111111
1100
1001
11
1
1001
101
0
11111110
1
11111110
11111100
101
1011
10001
11
11110111
11110100
0
0
1
11111111
100
1010
10
11111111
10
111
10
1010
1101
1011
1000
1110
10001
10100
110
0
11
1
101
1001
11111101
1111
11111101
11111001
0
0
1
0
101
101
1
111
1100
111
1101
10010
11010
10011
111
1010
10000
10001
10000
1010
1100
11
11
111
1001
101
100
111
0
0
0
1
11111111
11111111
1011
10000
10000
1111
11
11111101
11111101
11
111
11111111
1
110
110
111
1000
11
11111001
0
11111011
1
0
0
1
11111111
0
0
11111111
1
1
11111111
11111110
11111101
11111101
11111101
11111101
100
11111100
11101100
11110011
11110111
11110111
11111101
11111111
11111110
10
100
0
0
0
0
0
