0
1
0
0
11111111
11111111
0
1
0
1
0
0
11111111
11111111
0
1
1
0
0
0
0
0
0
0
11111111
0
0
0
0
0
0
11111111
11111110
11111110
11110111
11110110
11110110
11110010
11110100
11101111
11101110
11101101
11111101
11110010
11110100
11110010
11101010
11101111
11101111
11110110
11111000
11111000
0
0
0
0
11111111
0
11111111
11111001
11111000
11111011
11110100
11110011
11101100
11100110
11101110
11101100
11100110
11101011
11101000
11101001
11101001
11111000
11110110
11111010
0
11101111
11110001
11110000
11110100
11111010
0
0
1
1
110
11111000
11111100
11110000
11110100
11110100
11110001
11110101
11110100
11110010
11101100
11011111
11101010
11111011
11111101
11111110
1011
1100
111
110
11111101
11110101
11101111
11111011
10
0
0
0
10
110
111
11111111
100
11111101
11111101
11111011
11110110
11110111
11110011
11110011
11111011
10
11111110
11111101
0
1
11111101
11111111
0
11
1001
100
110
11111000
0
0
11111001
11
10
111
1101
110
10
11111110
11111001
11111101
101
11111110
11111101
11111001
11110110
11111001
11110111
11111110
100
0
111
11111111
11
1011
100
11111101
0
11111101
101
11111100
0
1001
1
11111111
11111101
10
10
100
0
0
11111101
11111001
11111001
11111110
1
11
110
1000
1
11
101
1000
1010
0
0
11111111
0
11111111
11111100
11111001
0
1
11111111
0
0
100
11
1
11111011
11111110
100
10
11
1001
1000
1000
0
10
11111010
101
10
11111011
11111000
11111000
0
11111110
101
0
0
0
0
11111110
1
100
1
0
11111110
0
100
101
1110
1100
1011
1001
10
10
101
10001
1011
11
11111010
11110111
11111100
11111011
11
11111101
11111101
11111110
11111100
11
11
10
0
0
0
0
11
1101
1110
100
100
11
0
101
100
1101
1101
11111111
11111001
11110000
11111110
11111110
11111110
11111000
11111000
0
11
1
11
11111110
11111100
11111010
11111011
11111101
100
100
1010
1
101
11
0
11111100
0
100
1011
110
11111010
11110111
1011
10
110
110
100
1001
101
1
11
11111111
11111001
11111000
11111100
11111011
11111110
1
1
11110111
11111111
11111011
1
11111101
11111110
1
1101
1010
0
11111001
1010
1010
1000
1010
10010
1011
10
1
1
11110111
11110111
11110110
11111100
11111111
0
11111110
11110101
11110000
11111000
11111000
11110111
100
11111110
0
10
100
10
0
0
111
101
1100
1001
1010
1000
111
1
11111001
11111000
11111001
1
10
1
11111100
11110111
11110100
11111011
11110011
11111001
11101101
11111000
11111111
0
11110111
1
110
1
10001
1100
111
11
0
11
1
10
11111010
11111010
11111110
0
11111111
1
0
11111011
0
11111001
11110110
11110001
11110101
11110010
11110111
11110101
11111010
11
101
0
10001
110
101
1001
11111110
1
10
100
101
10
11111100
0
11111111
1
100
101
11111110
11111011
11111101
11110101
11111000
11110101
11110101
11111110
1
0
11111111
11111111
1
11111101
0
0
11111101
11111011
11
100
0
10
0
0
1
100
110
101
1
1
11
11111001
11110111
11111011
11110001
11101111
11111011
0
1
0
11111001
11110110
11111001
11111110
11111111
10
111
100
0
10
100
110
1010
100
11
100
10
0
1
11111010
11110100
11111010
11110101
11111101
11110110
10
11
101
11111010
11101111
11111000
11111010
1
0
0
0
1
1
100
1011
111
0
0
11111011
0
11111110
11
11111001
11110000
11101010
11110010
100
1
11
11110111
110
11110111
11110100
11110111
11111100
11111101
0
11111110
11111010
11111100
11111111
11
110
100
101
0
11111001
10
11111100
11111111
11111100
11110101
11111000
0
11110100
1
1
11111000
11
11110000
11101011
11111000
11110111
11110101
11111111
11111001
11110111
11111011
11111000
11111110
0
100
1000
10
11111100
0
11111000
11111101
11111010
11110111
11111010
101
11110001
101
1
11111101
0
11110011
11110110
11111111
11111000
0
11110111
11111001
11110110
11110111
11110111
11110011
11111001
0
0
11111110
11111110
11111100
11111000
10
11111100
11111001
1
111
11110111
0
1
0
11110101
11111001
100
11111011
11111101
11111110
11111010
11111011
11111100
11110111
11111001
11111000
11111111
11111101
11111100
11111110
11111111
11111100
11111010
11110111
11111011
10
11
11
11111111
1
0
1
11110101
11110110
101
11111111
10
11111110
11111101
11111100
0
11110101
11110100
11111001
11111110
11111011
11111101
11111101
11111001
11111000
11111001
11111111
0
0
11111100
0
111
0
0
11111111
0
11111101
1
100
11
111
1
1
0
1
0
101
100
10
0
0
11111110
0
0
11111101
11111011
1001
100
11110001
11111010
0
1
0
11111100
1
1010
10100
10101
10000
10000
10001
1100
1010
1111
10010
10010
1001
1011
1111
10000
10000
1111
1000
111
0
1001
11111001
11111000
0
11111111
0
0
10
111
110
1100
11011
10101
11000
11010
10101
10011
10001
10110
10010
1001
1111
10000
0
1
1101
1001
1100
1000
11111110
0
0
0
0
0
1
11111101
0
111
111
111
100
1001
1110
1000
1010
11001
10001
100
111
1001
1001
0
11111111
11111111
11111001
0
11111111
0
0
