0
0
1
0
0
0
1
0
0
0
0
0
11111101
11111011
1
0
0
0
0
1
0
11111111
0
0
0
0
0
0
1
0
0
0
0
0
11
0
11110111
11111001
11111110
11111100
11111011
11111011
0
10
11
1
1
0
0
0
1
0
1
0
0
0
0
1
1
11111111
11111111
0
0
11110111
10
1101
1111
1110
1000
11111011
11111001
11111001
11111100
1001
1011
1010
1001
11111001
11111111
10
1
11
0
11111111
0
0
0
11111101
111
0
110
1000
1010
101
11
100
101
11111111
11110110
11110111
11111000
100
1000
11
11
11
0
11110111
11111011
11111010
0
0
1
11
10
11111101
0
100
110
1000
1010
1
11
11
11111101
11111010
11111011
11111101
11111010
11111010
11
10
11111011
0
10
11111100
100
100
1010
11111101
0
11111111
10
0
1010
1011
100
1
101
1
11
11111111
11111100
11111111
11111101
11111101
0
0
10
11111111
11
11111111
0
1
101
100
101
11110111
0
110
11111101
1100
110
111
0
11111110
10
1
10
0
0
100
10
1
0
11111100
1
0
0
0
10
11
11
1000
10
1
11111101
110
11111110
1010
1
11111111
1
11111111
0
10
11111111
1
0
0
0
11111011
11111101
11111101
11111111
11111111
10
11
0
0
10
1
1111
101
11111011
11111100
11
110
1
11111101
11111110
11111110
1
1
1
11111111
1
0
1
11111100
0
11111111
0
0
0
11111110
0
11111101
11111101
11111111
111
0
11111100
11111000
100
0
100
11111110
11
1
0
101
11111111
1
0
10
10
0
11111101
0
0
100
11111111
11111111
10
110
11111110
1100
11111110
11111001
11111110
11110011
110
110
100
11
100
10
100
0
11111101
0
11111010
0
11111100
11111001
11111110
0
0
1
11
110
1010
1
11111101
100
11
1
11111000
11110101
10
1
101
100
100
11111011
11111010
11110001
11110101
11111100
11111100
11111110
11111001
11111010
11111110
11111111
11111110
11111001
11111101
0
11111101
11110100
11110100
11111100
1011
11111101
11111011
11111100
11111010
11111100
11111101
11111110
11111010
11111110
11111010
11111110
1
10
10
0
11
11111110
11111111
11111101
0
11111000
11110111
11110111
11110001
11110001
11110001
11111111
0
11111100
0
11111100
11111111
100
11111110
1
11111011
0
11111110
0
1
11
101
111
101
11111110
11111101
0
10
0
11111100
11111010
11101100
11110001
11101110
11111101
1000
11111011
11111111
11111110
1
11111111
0
11111101
0
1
0
11111110
0
10
100
11
11
0
11111101
0
1
0
0
0
11111010
0
0
11
1001
11111001
11111011
101
11111111
10
11111011
0
11111101
1
1000
1000
1000
100
11
10
10
1
11111110
1
11111111
11111101
0
100
0
1010
101
110
1000
11
11111101
110
110
1000
11111100
11111000
11111010
0
11
111
111
1000
1001
1000
0
11111110
11111101
11111111
0
0
11111100
11
100
101
1000
11111100
101
100
0
1
110
11111110
11101111
11110011
11110011
11111001
11110011
11110111
11111101
0
0
11111110
11111111
1
11111101
0
10
110
11111101
0
1000
0
11111101
11111101
11111010
1
101
1
10001
11
11111001
11101111
11110010
11101100
11100110
11100001
11100100
11100101
11101000
11101000
11110011
11111100
101
110
10
110
100
1001
1010
100
1
0
11111000
11111100
11111110
1000
1000
10
11111100
11110110
11110100
11101101
11100101
11100001
11011100
11011111
11100101
11101110
11110010
11111110
101
111
11
100
10
101
10
0
0
101
11111011
1
0
100
110
1101
0
11110011
0
11110100
11110100
11111100
11111000
11110011
11110011
11110101
11111000
11111110
11111111
10
101
100
100
11111110
10
1010
1
11111100
0
10
11111111
1000
1101
1110
101
11111100
11111110
0
11111010
0
1
1
100
0
11111111
11111111
0
11111101
10
10
0
11111001
11111101
111
11111101
1
11111100
0
11111111
0
111
101
110
111
110
0
100
110
110
110
11
11111100
11111111
0
11111010
11111010
11111110
0
11
10
0
110
0
111
11111100
0
0
0
1100
1010
1001
1101
1010
1101
1010
1000
1000
111
11
1
1
11111111
11111101
11111110
0
11111111
11
101
11111110
111
111
1010
0
0
11111111
0
11111111
1001
10
100
1111
1010
1000
1000
1001
100
11
10
11
11111101
11111101
0
0
11111010
0
11111110
10
11
1101
11111101
11111101
11111111
0
0
11111111
11111000
10
0
1000
1000
111
1001
111
1001
1010
10
11111011
11111000
0
11111010
11111010
11111110
0
0
101
11
101
10
100
1
1
0
0
100
11111011
11111000
11110101
11111110
1
11111101
11111111
11111011
10
0
11111101
101
11
11111011
0
110
10
1
1
11111111
10
1
0
11111111
1
0
0
0
1
10
11111011
11111110
11111100
11111010
110
111
100
10
11111110
11110101
101
10
11111011
11110110
11110011
11110101
11111000
10
1
11111111
0
11111111
