0
0
0
0
0
11111111
0
0
0
0
0
11111111
11111111
11111111
1
0
0
11111111
0
0
0
0
0
11111111
0
1
1
0
11111111
0
0
1
11111100
11111100
11110101
11110110
11111000
11110000
11110010
11101011
11100011
11100101
10
0
0
11110110
11110100
11110000
11110000
11110001
11110110
11111001
0
0
0
0
0
0
11111101
11111010
11110100
11111100
11111010
11110000
11111110
11
11111111
11111010
1
100
101
11111010
11110111
11110100
11110100
11111000
11111011
11111010
11110011
11111101
101
100
0
11111111
1
0
101
11110101
11110111
11111111
111
10
0
11111111
11110110
11111100
11111111
100
110
0
101
0
11111010
11111000
11110110
11111010
11111100
11111100
11111011
110
11111001
0
0
100
10
11111100
11
0
1
11111110
11111000
11111011
11111010
11111110
0
100
11
0
100
100
0
0
11111111
11111000
11111110
0
11110111
11111010
11110100
11111100
11111111
0
11111110
0
1011
100
11111101
11111101
11111000
11110110
11110111
11110110
11111100
0
0
100
1
11
101
101
11
11111111
0
11111101
11111001
11111100
11111000
11111001
0
11
11111001
101
11111110
11110011
11111011
11111001
11110101
11111011
11111110
11111010
11111101
11111100
11111111
0
11
111
111
100
100
10
10
11111010
11110111
11110110
11111011
1
110
1001
11111101
1001
1000
11111100
11111110
11111011
11110111
11111110
11111101
11111101
11111101
11111001
11111100
11111101
1
10
101
1011
111
100
0
11111101
11111111
11110111
11111110
0
11111010
1011
101
101
0
11111001
1
11111101
0
100
11
11111100
11110110
11110011
11111011
101
11
11
100
11
1
11
1
11111101
11111010
11111000
11111000
1
10
1000
0
1000
111
101
110
11111111
100
10
11111111
11111000
11110110
11111010
1
101
101
100
100
10
10
11111101
11
11111111
11111010
11101111
11110011
110
11
1110
11111111
101
11111101
1001
100
1
100
0
11111000
11111110
11110111
11111001
11111100
11111110
0
100
0
101
110
1
10
11111110
11110011
11111001
11111011
1000
1100
0
1000
11111111
10
110
0
100
1
1
1
1
11111010
11110100
11110110
0
11111110
0
10
1001
1110
1000
1001
10
11101101
11110011
11110000
100
1000
100
111
11111101
1010
111
1
10
110
11
101
11111101
11111000
11110101
11111001
11111111
11
11111110
11
110
1010
10100
11001
11000
1000
11111101
11110000
10
11111110
11111001
10000
11111100
101
101
111
11
11
11111111
0
11111100
11111000
11110101
11111010
11111111
11111111
0
11
101
1
111
10101
100011
11110
1100
1
111
11111001
11110100
1000
11111101
11111011
101
11111111
11
0
0
11111101
11111100
11111000
11110111
11111011
11111011
11111011
0
101
100
11111111
1
10
10010
10111
10011
1110
110
11111101
11111011
11111011
11111011
11111000
1
11111100
1
10
11
11111111
11111100
11110111
11111100
11111111
0
1
10
11111111
11111111
11111111
11111000
10
111
1100
1101
110
11111110
111
11111100
1
11111000
11111110
11111101
0
10
100
101
101
0
11111000
11111100
11111111
0
101
1000
1
0
11111111
11111111
0
101
1110
1011
10000
111
11111111
0
1
11110110
0
11111010
0
11111111
10
11111110
1
11111110
0
0
11111111
1
0
0
11
11
0
11111111
0
110
100
10110
10
1001
11111011
1011
11111110
11111010
0
0
10
11111110
1
11111111
0
11111110
11111101
11111011
11111101
11111110
0
1
110
1000
101
11
111
110
1
1101
10
11
1
1
11110101
11111100
11111111
11111101
1
100
11111101
0
0
0
0
10
0
11111100
11
1000
111
110
1
1001
110
11
0
101
1001
0
0
100
11111011
11111110
11111111
11111110
101
100
1
100
11
10
100
10
0
11111100
0
101
110
101
101
0
11
110
111
100
1000
11111100
1
1001
1
0
11111101
0
10
0
1
1
0
11111101
11111111
11111110
11111100
11111001
11111110
1
11
1001
11
110
100
11
11
0
100
1
1
101
1000
11111101
11111101
1
10
100
10
100
1
0
11111111
11111111
11111001
11110101
11110111
11111100
11111110
11111111
1
1
10
11111101
1
0
11111010
0
0
0
11110101
11111010
11111101
10
11111110
11111110
11111111
100
11111110
101
100
11111111
11111000
11110110
11110101
11111001
11110110
11111010
11111110
11111110
0
11111111
11
0
0
1
0
11111111
1
11111111
0
11111111
0
1
0
0
11111111
0
0
11111101
11111101
0
11111001
11110111
11110011
11111000
0
1
11111110
10
11111110
1011
100
11111111
0
0
0
111
110
11111111
101
100
1000
11
11111100
1
11
11111100
100
11111011
11110101
11101100
11110010
11111010
100
110
11111001
11101111
11110110
1000
10
1
0
11111111
0
11111110
11111100
11111111
1111
1001
11111000
11110110
11110111
11110101
11111000
11111001
0
0
0
11111101
11111101
0
0
11111101
0
1010
100
11111110
0
0
0
0
0
0
11111101
11111101
11111111
0
11111101
11111010
11111101
11111111
11111100
110
10010
11000
1111
1011
100
1110
11111110
11111011
11111101
0
0
11111111
11111111
11111111
