0
0
0
0
0
0
0
0
1
0
0
0
0
11111101
11111101
0
0
0
0
0
0
1
0
0
0
1
1
0
0
11111111
0
1
11111110
11111100
11110110
11110011
11111001
11110000
11110101
11100111
11100110
11110011
10
11110001
11110110
11110011
11100010
11101111
11110000
11110011
11111000
11111011
0
0
1
0
1
11111111
11111111
0
0
11110011
11110000
11110001
11110101
11111010
11110101
11101100
11101111
11111111
11111001
11101010
11101011
11101110
11110010
11110000
11111000
11100101
11110010
11111010
0
0
0
1
0
0
11
11111001
11111010
0
11111001
11111101
11111011
11111110
0
11111111
0
11111101
11111101
10
11111111
11110111
11110000
11101010
11110111
11111111
11101100
11110111
1010
1001
101
0
0
0
0
1
11111101
11111100
11111101
11111111
0
11111110
1000
1010
11111110
11
11
10
11111001
11111001
11111001
11111000
11101101
11101101
11111011
0
1000
100
11111011
11111000
1
0
11110111
11111101
11101111
10
11111100
1
11111110
1
11
1
11111100
100
100
101
11111001
11111001
11111001
11111011
11111001
11110001
11110110
11111100
1000
110
0
11111110
11111111
0
11111101
11
11101111
11
11111110
0
11111101
0
11
0
11111100
101
101
101
101
1
11
11111100
11110101
11111101
11111111
11111001
11110100
101
101
0
1
10000
0
1011
100
10
110
11111100
11111110
0
11111100
11111011
11111111
111
1000
111
101
10
0
11111010
11110111
11111100
11111101
11111100
11111001
1001
110
11111111
11111010
11111011
11111101
1
110
0
11
11111111
11111101
11111011
11111100
11111001
100
1010
10010
1000
100
1
0
11111101
11111110
11111111
11111010
11111000
11110110
11111000
0
11111101
11111101
101
0
100
10
11111111
1
11111110
11111110
11111011
0
0
1000
10110
10100
110
11111110
0
0
0
11111100
11111010
11111011
11110010
11111011
11110000
11110110
100
11111111
101
1
101
11111001
11111100
1
0
11111101
0
0
110
1001
1101
111
11111110
0
11111111
11111101
10
11111110
11
11111110
11111001
11110101
0
11110100
10
100
11111101
11
11111101
11111110
1
1
101
10
0
11
100
10
10
11111110
11111110
11111110
100
0
0
0
11111011
0
10
11111000
11110100
11110001
101
11
11111111
11111111
11111110
0
10
1
0
101
10
11111111
11111101
11111100
11111000
11111101
0
0
100
11111111
11111110
0
11110110
11111110
10
11111001
11111011
11111101
100
11111111
11111100
1010
11111101
10
10
1
100
11111111
10
101
0
11111101
11111000
11111111
11111111
1
101
11111010
11111011
11111111
11111100
11111110
100
0
11111101
0
11110111
11111011
11111110
1011
1
1001
11111101
0
100
11
11
110
11111101
11111000
11111010
11111001
11111011
11111110
11
0
0
0
100
0
1000
100
11111110
11110110
11111000
11111100
101
11110111
0
110
100
1010
11
1
1
10
11111111
11111110
11111001
11111000
11111110
0
11
10
11111111
101
100
11
10
11111100
11111111
11110101
11111011
110
1001
11111010
1
1000
1000
1101
1
0
10
1
11111111
0
11111001
11111001
11111011
0
1
101
101
111
11
11
11111111
11111011
11110001
11101111
0
0
1000
11111100
100
0
1100
101
100
100
1
110
100
10
11111010
11111110
0
10
101
0
1
11111110
11111010
11111111
11111111
11111000
11111111
11101001
1
11111100
110
0
1
11111111
111
10
1
10
111
101
0
11110011
11110101
11
11
10
10
1
100
11111110
100
0
11111010
11110010
11111101
11111010
0
0
10
1010
11111101
10
1001
11111110
11111100
11111111
0
11111000
11110011
11110111
11111100
10
101
1000
0
0
11
11
100
11111101
11111101
11111010
11111100
11101000
1
1
100
11111100
11110101
11110100
1
11110101
11111101
11110111
11111000
11110010
11101110
11110101
11111111
111
111
1000
11
0
1
0
11111011
11111001
11111110
10
11111011
11110001
0
0
11111001
11111010
11111001
11111110
11
11111011
11110111
11110101
11110001
11110110
11110110
11111011
11111100
1
100
101
11111100
0
11
11111111
0
11110111
11110111
0
10
11110100
110
0
0
11111001
1
1
11111011
11111001
11110011
11101111
11110011
11111001
11111101
11111100
11111101
0
11111011
11111110
11111101
1
11111110
0
11111100
0
1
11
110
11110111
111
0
1
11111100
11111111
11111100
11111101
11111110
11110100
11101100
11110100
0
1
0
11111100
11111001
11111011
11111110
11
11111010
11111010
11111011
11111111
11111100
0
100
11111011
11110111
0
1
0
101
111
0
11111101
11111011
11111000
11111001
0
111
10
11111001
11110111
11110110
0
11111111
100
11111101
11111111
10
100
11111000
1001
1
11110010
11111110
1
0
0
101
11111101
0
11111001
11110100
11110011
11111100
1100
1011
100
10
11111111
1
11111011
11111011
11111100
11111111
0
11
11
0
11111011
111
11111111
11111001
11111111
1
0
0
1
100
110
100
11111111
11111000
110
101
1
0
101
10111
10101
110
0
110
1001
10011
10100
10000
1000
11111111
0
0
11111111
0
0
0
0
0
11111101
110
111
111
1
110
110
10
1010
10101
10000
10000
10001
1101
1110
1
110
100
11111100
0
0
0
0
