0
0
0
1
1
11111111
11111111
1
0
11111111
0
0
0
0
10
0
0
0
11111111
0
11111111
1
0
0
0
0
0
0
0
0
1
0
0
0
10
0
1
11111111
11110101
0
11
100
11111100
101
1001
111
0
11111101
11111110
11111010
1
101
0
11111111
0
0
0
11111111
0
111
111
11111001
0
111
11111000
11101111
11111001
11111000
11111000
11111001
11111010
11111101
0
11111010
11111111
11111000
11111011
11100111
11110011
11111101
11111011
11111111
1
0
0
0
10
100
10
11111101
11111101
100
11
11111011
0
11111111
10
10
11
1
101
11
11
0
11111101
11111101
11110011
11111001
11
11111000
11111011
0
0
100
110
101
1010
0
11111100
11111110
11111011
11111010
1
101
11111111
10
1
111
11111111
11111011
11111101
1001
1001
11
11111101
0
11111011
11110111
111
11111011
0
1
11111000
11111100
11111110
0
11111011
0
100
100
101
101
0
100
11111100
11111100
11111010
11
1000
1101
1110
100
101
0
11111111
11110110
11
11110110
0
11111111
11111110
11111110
11110110
11
11111110
1000
1000
10
1
100
100
110
110
110
1110
10000
10011
1010
111
1001
100
11111100
11111011
1
0
11111101
0
111
11111101
1000
11111010
11111111
1
0
11111100
0
1
11
110
100
1000
1100
10010
1111
1111
1
11
110
11
100
1
11
11111110
100
11
0
1
1100
1
100
11111110
11111001
11111111
0
0
111
110
101
1001
1001
10010
1100
1100
100
100
11
101
1001
10
11111111
11111101
10
11111111
1001
11111101
1001
10
0
11111101
11111110
11111111
10
111
100
0
100
101
1010
1001
111
11
0
0
0
11
0
1100
0
1
101
0
10
11
110
11111100
11111111
1
110
0
10
1
0
0
111
1001
111
11
0
11111101
0
10
11
11111111
100
0
111
1101
111
1
1
100
10
0
11111000
11111111
1
11111111
0
0
11111111
11111111
1110
1111
1001
11111100
0
11111111
11111110
11111111
11111101
10
110
101
11111111
111
1000
10
10
11
11111000
11111011
11110111
11111011
11111111
11111111
11111111
11111010
11111001
11111101
1001
1110
1
11111100
11111100
11111110
0
0
11111101
11111110
110
11111110
11111101
110
111
0
0
110
11110111
11111101
11111010
11111010
11111010
11111001
11111010
11111011
11110101
11111010
11111111
1
11111110
11111101
11111111
11111011
1
11111110
11111111
11111011
0
11110100
11110100
11111000
11111001
11111100
100
1001
11111101
11111111
11111101
11111101
11111010
11111000
11111100
11111111
11111010
11111111
1
11111111
11111111
11111001
11111010
11111111
11111110
11111110
1
11111000
11111111
1
11111011
11111000
11110110
11111110
110
11111001
11111111
110
1
0
11111010
11111010
11111111
0
11
11
11111111
11111010
11111010
11110011
11111100
0
11111101
1
11111101
11111100
11
1
0
11110101
11111001
111
1000
11111101
0
11
0
11111110
11111100
11111100
1
1
100
11
11111100
11110111
11110011
11110110
11110111
11111011
11111111
0
11111101
11111101
11111100
11111111
11110111
11110000
11
1
1000
11111100
100
11111011
11
11111101
11111100
11111001
0
11
1
100
11111011
11111000
11111011
11111100
11111001
11111001
11111101
11111010
11111010
11
0
0
111
0
10
101
111
1
11111110
11111001
11111011
11111111
0
1
110
1011
1001
111
11111111
1
0
11111110
11111010
11111101
11111110
11111001
11111110
100
11111010
11111000
1
110
11110110
0
1001
11111111
11111001
11111001
11111100
10
1
111
1001
111
1
1000
11111110
10
11111110
11111111
11111011
11111001
0
11111101
10
0
11111010
11111101
111
11100100
0
1
101
11111001
11111010
11111111
10
111
11
1001
1000
100
11111111
11111010
11111111
0
11111110
11111110
11111111
11111110
0
11111110
0
11
11110111
0
11111110
11110101
100
0
11111101
100
11111100
100
101
1001
1010
100
1
0
11111101
11111110
11111011
0
0
100
0
11111110
11111100
11111101
11111110
11111110
11110011
0
11111100
11
10
0
0
11111011
11110100
11111011
0
1000
110
10
0
11111101
11111110
1
1
1010
1000
1001
111
0
11110111
10
11111011
11110111
11110110
11110111
10
0
100
11111111
0
1010
11
11111110
0
111
110
11111101
11111010
1
100
110
1011
1100
1010
111
111
100
0
10
11111111
1
11111101
11111111
11111101
11111010
11111111
1
0
1001
1100
0
11111000
101
110
101
11
1
10
11
101
100
101
11111110
11
11
0
0
11111011
11110111
11111100
11111010
11110011
1
0
1
0
100
1
11110001
11111111
10
11111111
100
1001
1
1
1011
1010
1000
0
1
111
100
10
1
0
1
0
0
1
11111010
0
0
11111111
0
101
11110111
11111010
11110101
11111110
0
1001
10000
1110
1100
1101
10001
1101
10000
10001
10101
1001
11
1
11
101
1
0
0
0
0
0
1
0
0
11111111
0
1
1
11111011
110
1
11111011
0
1000
11111110
111
1110
1000
111
11111000
11111001
11111110
11111101
1
0
11111111
0
