0
0
0
1
0
0
0
0
0
0
0
0
11111101
11111110
1
0
11111111
1
1
0
0
0
0
0
1
0
0
0
1
1
0
0
11111100
11111100
11111010
11111000
11110100
11110000
11110010
11101111
11101010
11111101
110
11111111
11111110
11110101
11110100
11101101
11110010
11110100
11111000
11111000
0
0
0
0
0
1
11111110
11111010
11110101
11111011
11110100
11101100
11100010
11100010
11100011
11100010
11101000
11110111
11110010
11110010
11110110
11111010
11101111
11101000
11100101
11101001
11101100
11110001
11111100
0
0
11111111
0
0
110
11110110
11111010
11111010
11101110
11100110
11011101
11100101
11011111
11011111
11010100
11100000
11100110
11101111
11110100
11110101
11111001
11111110
11111100
11111000
11111100
11111111
11111010
11111110
11111010
11111111
0
101
1
11111111
1
11111100
11111100
11111001
11110111
11101111
11110000
11110101
11110110
11111011
10
0
100
0
11111111
1
11
11
1
11111110
10
11111111
11110110
11110111
0
0
11111101
1001
1
11111101
11111011
1
11111110
11111100
11110011
11110111
11111010
11111100
10
101
11
1
0
0
1
101
101
11111010
0
10
11111000
11111101
0
10
11111100
11110111
11111110
1
11111010
11111110
0
11111111
0
11111110
11111111
11111111
11111111
1
1
100
0
11111110
0
1
1
0
0
11110111
11111001
11111110
0
0
0
11111101
11
0
1001
1
101
101
100
11
101
11
11111101
11111110
100
100
11
11
1
10
1
11
0
11111001
11110110
11111011
11110110
11111001
11111111
1
11111101
11111101
110
101
1011
1100
1001
1101
1010
101
0
11
110
110
111
111
100
0
110
1
11
100
100
100
11111101
11111010
0
11111110
1
1
110
101
1010
1100
1100
1001
1000
110
101
1001
1001
1011
1000
1000
1001
100
100
110
10
1011
11111100
0
11111110
0
11110010
11111011
0
0
100
101
100
1001
1000
101
101
101
11
100
11
101
1011
1101
1001
101
1011
1101
1
11
11111011
111
11111111
11110111
11111000
10
11111111
110
11
11
10
11
11
11111101
11111111
0
0
10
11111110
1
100
10
100
11111111
1001
111
0
111
1100
10
0
11111000
11110101
11111011
10
0
1
11111111
11111011
11111101
11111111
11110111
11110101
11111100
10
0
11111111
0
11111101
11111110
11111001
11111001
11111101
10
111
100
11111110
1
10
11110101
11111001
11110100
11111110
11111011
11111110
11111101
0
11111110
11111010
11111011
11111011
11111110
11
100
11
100
1
11111111
0
11110111
11111000
11110101
0
110
10
1001
11111000
11110111
11110010
11111101
0
11111010
11111010
11111100
1
11111101
11111101
11111110
0
1
1
100
1010
1000
100
1000
11111111
11111011
11110111
11111001
11111110
111
1110
101
11111010
11111010
0
101
0
101
11111110
0
1
0
11111110
1
11111101
0
10
100
110
1010
110
0
11111110
11111001
11111111
11111000
11111010
11110111
1111
11111101
10
11111110
1000
1
1
110
11
100
0
1
0
11111110
11111101
11111111
11111111
0
111
110
100
11
0
10
11
11111101
11111000
11110110
10000
10
0
0
1000
11111001
11111010
0
10
111
101
10
0
11111110
10
101
100
101
10
10
10
11111110
11111101
1
1
0
0
11111101
11111100
10
11111001
111
1001
11111011
11111010
101
100
11
11
101
100
0
0
10
1
11111111
11111100
11111101
11111110
11111111
11111110
11111101
11111100
11111100
0
11111111
11111010
1011
1000
11110110
1101
11111011
11111101
110
11111010
11111100
0
0
11111101
11111010
11111001
11111110
11111110
11111101
11111110
11111010
11111001
11111111
11111010
11111110
11111111
11111101
1
11
101
1000
0
11111010
1000
0
11111001
11111110
11110101
11111100
11110111
11110111
11110110
11110110
11110101
11110110
11110110
11111001
11111101
11111111
11111011
1
11111111
0
11111010
10
10
111
11111110
11111111
10
1000
11111001
11111101
11110111
11111111
11111010
11111001
11111001
11111011
11111000
11111001
11111001
11110111
11111011
11111100
11111110
11111110
0
110
100
110
11111011
11111110
0
0
11111000
11111111
10
100
1101
11111110
11111111
11111110
11111110
0
11111111
11111100
11111010
11111110
11111111
0
11111111
11111100
11111110
0
10
1
1000
11
0
11110011
1000
101
11111000
11111101
0
0
11111111
11111101
11111100
11111100
11111110
11111101
11111101
11111110
11111011
11111111
0
11111111
0
10
1
0
10
1
100
110
10
0
1
11
0
1
11111111
11111111
1011
11111110
11111001
11111111
10
0
0
11111101
0
100
11111011
11111010
11111101
11111101
11111111
11111000
11111010
1001
1100
11111011
11111100
111
0
110
111
11111111
0
0
0
11111110
1010
10000
110
1100
1110
11
1011
100
1
11111110
0
11111001
11111001
11111000
11111111
1010
101
0
11111010
11111001
11111111
0
0
0
1
0
0
11111110
110
111
1001
10100
10101
10010
10100
1100
100
11111011
11111100
11111100
11111011
101
1101
0
11111100
11111010
11110100
100
100
0
1
0
0
11111111
0
0
0
0
101
1
11
101
1010
1111
1000
1001
1100
1101
11111000
11110101
101
101
11111110
11111000
11111000
11111111
0
11111111
0
0
