11111111
1
0
11111111
0
1
11111111
11111111
0
0
0
0
11111110
11111101
10
1
0
0
0
0
1
0
0
0
11111111
0
0
0
11111111
0
0
0
11
101
110
101
110
1001
1000
1000
111
10
11111010
11
111
1000
11111110
0
110
11
1001
111
1
0
0
0
11111111
0
0
10
1010
1
110
1110
1
11111100
11111110
0
1
11111111
11111000
11110100
11111010
11111110
100
11111111
11110011
11110111
11
1000
110
1100
0
0
11111111
0
11111100
100
1
0
110
1
1
11111011
11111100
11111010
101
100
111
1101
10
1
11
11111101
101
11111010
11101110
11111100
10
100
10
0
0
0
11111110
1001
101
11110110
11111011
11111010
11110001
11110100
11111010
11111001
11111011
10
101
101
110
1
0
100
1
11
11111100
11111100
11111101
11111001
0
0
0
0
10
0
11111110
11111001
11
100
11111000
11110101
11110000
11101011
11101110
11110100
11101101
11101010
11110011
11110011
11110111
11110000
11101010
11111101
11111001
11111001
11110011
11110110
11
11111110
0
1
11
110
11111110
1010
1100
101
11111101
11111010
11111010
0
11111100
11111000
11110010
11100111
11110011
11110010
11111001
11111100
11111001
11111101
100
11
11111001
11111010
10
11111111
0
1000
0
1011
11
1
1010
1000
101
0
11111111
11111100
11111100
11110101
11110000
11101100
11110000
11110100
11110111
11111000
11111110
11111101
11
100
11111100
11111011
11
11
0
101
11111010
110
101
10
11
100
111
110
11111100
11111110
11111110
11111001
11111001
11111000
11110001
11111000
11111100
11111111
0
0
0
11
0
11111100
0
11111111
10
111
11111110
0
1011
111
10
10
0
0
0
100
1001
111
100
1
10
11
0
11111111
0
0
0
0
11
11
1
11111111
11
1
101
1
1000
1011
1001
100
11111111
11
0
101
1001
1101
111
1011
1001
10
0
0
10
11
10
0
0
1010
110
11111111
11111100
10
101
1100
1010
110
1
11111110
11111101
1
1
101
11
11
1001
10000
111
10
100
11
110
0
0
111
1
111
0
110
11111010
1001
100
10
11111111
11111010
11111101
0
11
1
11111111
0
11111100
0
1011
1100
111
0
11111111
11111111
11111111
11111110
1
10
11110110
110
1100
111
0
100
1000
11
11111100
101
0
11111111
11111111
11111111
11111111
11111101
11110110
11111011
11
1
101
0
11111111
11111110
0
11
0
11111111
100
1000
110
10
0
100
1011
1
11111110
10
11111111
11111000
11111110
11111101
0
11111101
11111001
11111101
11111110
10
10
0
1
1
100
11111110
11
111
111
10
1000
111
11111110
11111110
10
11111010
11111110
0
101
11111010
11111110
0
11111111
11111011
11111011
11111010
11111110
0
11111101
1
101
1
101
11111101
101
11
110
100
11111011
11111110
11111101
11111100
10
11111110
1
1
1
11111110
11111110
11111111
11111100
11110111
11111001
11111010
11111110
0
1
11
101
110
1
100
10
1
11
0
100
0
0
0
11111111
1
1000
1
101
11111011
11111101
0
11111010
11111010
11111111
1
1
0
1
100
111
100
101
100
100
0
1
1011
110
0
1001
1
11111110
100
1000
10
100
10
100
0
11111010
11111111
1
101
101
0
10
10
11
11111110
0
11
110
11111101
11111100
111
1010
11111001
11111101
111
0
100
1011
0
11111111
1
0
0
11111001
11111010
0
10
1
11
1
0
11111001
11111100
0
11111011
0
11110110
11110100
11111100
100
11111110
1
11111101
11111101
0
0
0
11111110
11
11111110
11111100
0
11111100
11111110
11111111
1
11111111
11111100
11111010
11110111
11110111
11101011
11101111
11110111
11111001
11110010
11110111
1001
11111100
1
11111101
11111000
11110011
11110011
11111111
11111011
11111101
11111111
11111110
11111101
11111010
11111111
11111011
11111011
11111001
11111101
11111100
11111100
11110101
11110001
11101001
11110100
11111000
11111001
1
1000
0
0
0
11110101
11110010
11110101
11111100
11111011
11111110
11111101
0
11111010
11110000
11110111
11110110
11111000
11111010
11111110
0
1
11111010
11110001
11101101
11110010
11110010
11111001
0
1000
0
0
0
11111001
11110100
11111111
0
11111111
11111011
11111001
11111100
11111010
11110110
11110101
11110110
11111000
11111001
11111011
11111110
11111010
11111010
11110110
11110111
11110111
11110110
100
11
10
1
1
0
11
101
11111110
100
0
11111110
11110111
11111001
11111101
0
11111011
11111100
11111110
11111011
11111100
100
11111101
1
0
11111111
11110101
11110110
101
11110011
11111011
0
0
0
11111100
1011
0
10
101
110
11111111
11111001
11111011
1
1000
0
101
11111111
0
11111001
11111010
11111111
11110111
11110011
11111110
11111011
101
10
0
1
0
0
0
0
11110011
11111011
11110101
11111111
11111110
11110110
11111011
0
11111100
11111110
11110110
11110111
11110100
11110000
11110101
11111001
11110101
11110001
11111111
11111110
11111010
101
1
1
1
1
0
1
101
1001
11111010
11111100
11111110
11111011
11111101
11111011
11111011
0
11111011
11110111
0
0
11111011
11111010
11110100
11111001
11111111
100
0
11111111
0
0
