0
0
0
0
0
0
1
0
0
0
0
1
11111010
11111010
0
1
0
0
11111111
1
0
0
0
0
0
11111111
0
0
0
11111111
11111111
0
0
0
11111100
11111011
11110111
11110110
11111100
11110011
11110111
11101100
11111011
11111101
0
11111011
11111011
11110101
11110101
11111100
11
100
1
0
0
0
11111111
0
0
11111000
11110111
11111011
11111100
11111000
10
1110
1011
1001
1110
1011
110
111
1101
1010
110
1
11
11101011
11111001
1000
100
1000
1
11111111
0
1
11
11111111
101
11110111
11110110
11111000
110
1000
11
101
1101
110
100
110
110
1000
1000
111
100
11111111
11110111
11111001
11111101
0
10
0
0
11
100
0
100
11111110
11110110
11111000
0
11111110
0
11111110
11111100
11111001
11111101
11111100
0
11111100
0
1
11111111
11
0
11110100
11111011
0
11111111
11111001
0
1
11111101
11
11
0
11111101
11111000
0
11111100
1
11111111
11111111
11111111
11111101
0
111
11
11111101
11111101
10
100
11111100
1
11110111
11110111
11111011
11111011
11111111
1001
110
11111011
11111101
11111110
0
11111011
11111100
0
110
100
10
0
11111111
11111110
1
11
10
0
0
11111100
11111011
0
10
11111011
11111111
0
11111110
1011
11111001
11111101
0
0
0
10
10
1
1
1000
101
100
100
0
0
101
1
10
10
11111111
11111111
0
11111111
11111110
110
0
11111000
0
11111101
0
0
101
0
1
101
11
100
1011
1000
11
1
101
1
100
10
0
0
1
0
0
11111001
0
10
0
0
11111000
11
0
1
100
111
110
100
1
11111111
0
11111000
11110001
11110001
11111101
0
1
11111101
11111011
11111100
11111111
11111101
11111111
11110001
0
11111110
11111100
0
11111000
1010
0
0
11111100
1
11111101
11111110
11110010
11101011
11100110
11100011
11100011
11101011
11110111
0
0
11111110
11111101
11111111
0
11111101
11110100
11110110
1001
1
0
1
11111101
11111011
11110100
11110001
11101010
11100100
11100101
11010101
11001111
11011011
11100110
11101111
11110101
11111010
10
101
11
11111111
11111110
1
11111110
11111000
11110111
11111000
111
11111010
11111101
0
11111001
11111000
11101100
11100000
11010010
11001100
11001111
11011110
11100101
11111000
11111111
10
0
100
11
11
11111110
10
11111100
11111101
11111001
11110101
11111100
11111110
1110
11111001
11111011
11111110
11111001
11111010
11110010
11100100
11101100
11110011
11110111
11111010
10
110
11
100
100
10
11111111
11111111
10
0
100
11111110
10
11111111
0
10
111
0
0
11111100
11111111
11111101
11111001
11111011
11
1100
111
1011
1101
1010
110
110
10
110
0
0
0
10
0
11111110
111
11111110
11111101
100
100
10
11111101
11111111
111
11111111
11111110
1000
10001
1111
1001
1001
100
101
1
0
0
11111110
0
11111111
0
1
11111110
0
11
11111001
0
100
111
1110
10
0
1001
1
1000
1001
10001
111
1000
11
1
11111110
0
0
0
11111110
11111111
11111110
0
0
10
0
0
0
10
100
111
1110
10
0
1011
0
111
1001
111
101
10
0
0
11111111
100
1
1
0
0
11111111
11111111
10
11
11111111
11111100
10
11111110
11111001
10
111
0
101
1010
11111111
1100
110
11
0
0
100
100
1
11111111
1
10
10
0
1
100
10
100
0
1
100
11111111
0
1
11
111
11111101
11111111
11111101
1101
1
11111100
11111110
11111101
11111101
11111111
11111110
11111111
11111101
0
100
100
11
11
10
10
0
0
11111110
11111101
101
101
11111101
111
1
11111001
11111110
110
11
11111100
1
11111110
11111110
11111110
11111101
0
0
10
10
0
11111110
11111111
100
0
1
11111101
11
0
11
110
1001
11111110
10
11
1010
10
0
0
0
11
0
0
0
11111101
11111101
11111110
11111110
0
11111110
1
100
11111100
1
11111110
0
11111111
1
1000
101
0
0
11
101
11111111
1
11111101
0
11111101
11111110
0
11111111
11111100
11111000
11111010
11111110
100
11
100
11111110
11111111
11111111
0
11111100
10
11111100
110
11111101
11111111
0
0
1101
11111111
100
0
0
10
0
1
11111110
0
11111011
11111101
0
0
0
11111101
11111111
11
11111100
11111000
0
10
11111110
100
0
0
0
0
0
1010
11111111
11111101
11111110
100
1
10
0
11111111
11111001
11111001
11111001
11111000
11111001
11
11
1
11111100
11110101
0
11111011
11111101
11
111
0
0
0
11111010
11111100
1011
10
1
10
10
1010
111
0
11
0
0
11111010
11111011
11111010
1
0
0
11111010
11111110
0
11111010
101
111
0
0
0
11111111
11111111
11110111
11110101
11101110
11111010
11
11
1011
1
100
1000
11
111
1100
110
1
11111110
11
11111110
1
11111101
11111010
1
0
0
0
0
11111111
0
0
0
11111110
11111111
11111101
11111001
11110111
11110110
11110110
11110000
11101110
11110101
11110110
0
11111111
11111010
11111000
11110101
11111000
1
0
11111111
0
0
