0
0
0
0
0
0
1
0
0
1
0
0
0
0
0
1
0
0
0
0
0
0
11111111
0
11111111
0
0
11111111
0
0
11111111
0
1
0
11
10
100
111
1010
110
111
10000
11111100
0
1000
1010
11111111
10
11
11111111
10
11
0
0
0
0
0
11111111
0
0
100
101
1000
1011
1110
111
1001
1101
1100
100
1000
1010
1010
10000
11101
10100
1101
11111110
0
101
10
0
0
0
0
0
11111001
11111101
1000
1001
11111110
11111111
1100
100
1101
1011
111
10
11111111
110
101
1001
101
11111101
0
1000
10
100
111
10
111
0
11111111
11111010
11110111
11111000
11111010
11
11110110
11111101
11111001
11111010
11111001
11111100
11111101
11111000
11111100
0
100
100
100
11111110
100
10
0
101
111
1111
1110
110
0
1
11110111
11110111
11101011
11111001
11110110
11110101
11111001
11111101
11111110
11111111
11111110
11111101
11111001
11111011
111
111
101
100
101
11
11111111
101
11111110
0
1000
110
0
11111101
100
11111100
11111011
11
11111111
11111011
0
0
11111010
11111101
11111110
11111110
11111110
11111111
0
11111101
10
1001
111
11
101
111
101
1
1000
11
11111111
11111101
100
11111001
11111100
101
0
1
0
0
1
11111111
0
0
0
11111111
11111100
11111111
110
1
1
1000
1111
111
11
11111100
1111
1000
1001
111
1000
100
11111101
10
11111111
100
100
1
10
111
111
0
11111111
11111100
0
11111101
11111111
0
11
1010
111
1001
1000
11
1110
110
1
110
1001
11111010
11111110
0
11
11
1
10
101
1011
1001
11111110
11111001
11110101
11110111
11111000
11111110
101
11
1000
1001
0
101
1111
1001
11111111
1
1
1011
11111011
0
110
0
1
101
101
11
110
11
11111101
11110111
11110001
11110001
11110101
11111100
111
1100
1111
1010
1000
100000
10
11111100
11111011
11111010
1011
100
0
11111111
11111101
10
0
11
100
11111110
11111111
11111101
11111101
11110110
11110100
11110011
11101111
11110110
0
10101
10001
110
1101
1110
0
11111001
11111011
11111101
11
100
10
11111010
0
111
110
0
11111110
11111111
11111110
11111011
11111110
11111010
11110110
11110011
11110011
11111000
11
10000
11000
1110
10111
1110
110
100
1
0
11
100
1000
10
11
11
1
10
0
11111111
11111101
11111010
11111001
11111010
11110110
11110011
11110110
0
1101
1111
10010
10000
1011
1100
100
10
11111111
111
0
101
101
0
110
101
0
101
0
11
101
0
11111111
11111011
11111000
11110110
11111001
1
1111
10010
100
101
100
1
11111111
11111110
0
11
0
11111100
11111110
11
1011
11
10
11111101
10
101
0
11
1
11111111
11111001
11110100
11111110
1011
1110
1011
100
11111001
10
1
11111111
11110111
1000
11111001
11111101
11111011
100
101
1011
11
0
11111111
10
11
1
110
11
11111110
11111101
11111110
1101
1110
1100
10
1
11111111
110
111
101
11111011
11111111
1
11111011
11111001
0
111
110
10
11
0
10
1011
1000
1
0
11111100
10
1100
1111
1101
1010
101
100
1
100
110
11111010
11111110
11111000
111
11110101
11110001
0
100
1000
0
11111110
11111100
11111011
1000
110
111
10
0
1000
1111
1001
10
100
101
10
11111111
101
1110
0
11111110
11111001
11111110
1000
10
11111100
100
100
0
11111101
10
11111111
11
11
1000
101
11
100
100
10
10
10
11111110
11111101
11111111
1000
111
0
100
11111100
0
11111110
11111100
11111110
101
101
100
10
1
11111010
11111111
0
1
111
11111110
11111111
11110110
11111100
11111101
11111111
11111101
11111101
11111100
101
11111110
11110010
10
0
11111101
11111101
11111010
1
1
0
0
101
1
11111010
11111111
1
101
101
0
11111000
11111010
11111110
11111101
11111101
1
11111111
11111101
11111111
1
11111010
11111010
0
11111111
11111100
11101101
11111111
11111100
1
10
0
11111110
11111110
11
101
111
10
11111111
11111111
10
101
11111101
0
11111100
0
11111100
1
11111110
11110110
11111111
11111111
0
11111111
0
11111011
11111101
110
11111101
10
11
11111110
11
11
11111110
0
10
0
1
0
0
0
11111011
11111011
1
11111110
11111001
11111010
11111000
0
0
0
11111100
11111111
11110010
11111011
11111101
1
1
11
0
101
100
0
11111111
10
100
100
0
11111101
11111110
11111110
10
11111000
0
11111110
11111100
0
0
0
11
1
11111100
0
11111111
11111011
0
101
101
1001
110
1
11111110
11
11
11111101
0
10
0
11111111
0
111
100
110
111
0
0
0
0
11111100
11110101
11
1
11
1001
0
0
11111001
11111111
100
11111010
11111101
0
11111001
11111101
11111110
1
0
11
11111001
11111011
0
0
0
1
0
11111111
0
11
100
11111110
0
11111110
11111101
11111011
11111010
101
110
11110101
11110111
1000
100
11111011
11111000
11111001
11111110
101
11
0
0
1
11111111
