0
0
0
0
0
0
0
0
11111111
0
0
0
11111111
0
0
0
0
0
0
0
0
1
0
0
0
11111111
0
0
1
11111111
0
0
11111111
11111111
11111011
11111111
11111010
11111101
11111001
11111001
11110000
11110000
110
10
111
110
11111111
1
10
111
11111101
11111100
0
0
0
0
0
0
0
0
11111011
101
100
11111001
100
1000
110
0
11111101
10
101
110
1
11111101
11110011
11110100
11110111
11
11111100
11111110
110
100
1
0
0
0
0
11111111
11111011
11111100
11
11111011
11111111
10
11111100
11111101
11111011
11111110
1
0
11
11
11111111
11111000
11110100
11110111
11111110
11111000
11110111
0
11111010
0
0
11
11111111
11110110
1
10
0
11111011
11111111
11111111
11111011
11111111
0
100
101
0
111
1
11111110
11111111
11111101
11111001
11110111
11111000
11111100
11
11110101
11111101
0
1
11111111
11111100
111
11111000
11
11111111
11111011
11111111
11111110
0
110
101
100
1000
10
11111110
11111101
11111100
11111100
11111100
11111011
11111000
11111101
11
1
0
0
11111111
11111010
11111011
11111010
11111100
10
1
11111110
10
0
0
11111111
0
11111111
1
10
0
11111001
11110100
11111100
11111101
11111110
11111011
11110010
11110100
0
11111111
11
1
11111101
0
100
11111011
11
11
1
11111110
11111101
11111010
11111101
0
10
101
11111011
11110111
11110110
11111001
11111100
11111101
11111100
11111101
0
11110010
11110111
11111101
11111001
1
0
100
110
0
101
11
0
11111110
11111101
11111101
11111110
0
0
1
11111010
11111011
11111010
11111110
11111011
0
101
11111000
11111011
11110100
11111010
11111110
0
11111101
111
1010
0
1000
110
100
0
1
1
11111101
11111101
0
11111111
11111100
11111101
101
100
11
101
11111110
1
11111110
11110111
11101011
0
11110011
0
1011
100
101
0
11
101
110
11111111
11111101
11111011
11111001
11111101
11111100
11
11
1
1010
10000
10101
1111
0
1010
110
11111000
11110010
11110101
11111010
111
11111101
11111011
1
11111100
100
0
110
11111111
11111101
11110110
11111011
11111111
1
1010
110
100
1001
1010
10010
10100
10110
11011
11010
110
101
11110110
11111011
110
11111010
11111101
11111110
0
10
0
11111111
11111000
11111011
11111011
11111101
0
111
1011
1001
1010
1010
110
1100
1100
10101
10111
11000
1111
1101
1
1
0
11111000
11111010
0
0
11111001
11111111
11111100
0
11111101
11111111
1
110
1001
110
110
101
101
110
110
11
111
10
100
100
101
10101
1010
11111000
11110110
11110010
0
11111111
110
0
11111110
11111111
1
0
111
1010
1110
110
0
101
100
100
11
11
100
11111010
11110101
11111010
100
10011
111
11111010
11111011
11111110
11
11111111
100
11111101
0
0
11111111
0
11
100
1011
1010
100
10
0
11111111
11111111
11111110
11111100
1
11111001
11110111
1
1010
11111111
100
11111010
0
11111110
1
0
11111110
11111011
11111101
0
10
101
110
1100
1010
101
1000
1
1
11111100
11111110
11111110
11111110
11111011
11111010
110
10111
1
0
11111111
1
11111110
1011
0
0
11111001
0
0
10
101
111
101
100
1010
1001
11
11111101
11111101
11111111
11111000
11111010
11111001
11111101
1000
1010
1010
11111001
1000
1000
0
1010
11111111
11111011
11111011
0
11
1000
111
110
0
11
1000
101
11111101
0
11111101
11111100
11111001
11111001
11111111
11111111
101
100
1010
0
11111111
11111000
11111100
11
0
11111011
11111111
11111010
11111110
100
11
1
11
111
111
10
0
11111111
11111110
11111010
11111010
11111111
11111001
11111011
0
1110
11111111
0
100
11111111
11111100
11111110
11111101
100
0
11111110
11111001
11111110
0
0
0
1
10
1
0
0
0
11111111
11111110
11111000
11111010
110
101
110
11111101
1
1000
1011
11111111
11111101
11
100
0
1
11111100
11111011
11111011
11111110
11111111
0
11111110
0
11111110
11111100
0
0
11111110
11111111
0
1000
110
100
11111100
0
11
1101
0
10
101
101
110
100
0
0
0
0
100
0
11111111
11111011
11111011
11111100
11111011
11111110
11111110
100
11111100
1001
101
11111011
11111011
0
0
0
11111110
0
11
0
11
11
0
11111110
0
0
0
11111111
1
11111110
11111011
11111101
11111000
11111110
0
1000
10
0
0
11111100
0
0
0
101
11111111
11111010
11
10
0
10
11111101
11111101
1
0
11111100
0
101
100
11111000
11111001
11111101
11111100
11110110
0
110
11111011
1100
101
0
0
0
10
11111101
100
11111101
11111000
11111010
1
11111010
11111101
11111101
11111011
11111101
10
10
11111101
11111101
11111101
11111001
11111110
11111101
11111010
11110111
11110110
0
11111111
0
0
0
0
1
1010
0
1
10
1
1
10
11111110
11111010
11110110
11111111
11111001
11111111
11
11111110
11110110
11111011
0
11110111
0
100
11111101
0
1
0
1
11111111
0
11111111
11111101
11
0
0
0
11111110
11111111
0
11111100
100
1010
101
101
100
11
111
110
11111101
11111001
1
0
0
11111111
