11111111
0
0
0
0
0
0
0
0
0
11111111
0
11
10
11111111
1
0
0
0
0
0
11111111
0
1
0
1
0
0
0
0
0
0
1
1
110
1000
1010
1100
1101
1101
1110
1010
11111110
100
1000
1101
1011
1110
1100
1010
110
110
0
11111111
0
1
0
0
10
111
111
1000
1110
11010
11000
10010
10101
10101
100010
110010
101001
11011
10110
10
0
10
0
11000
10001
1110
1011
101
1
1
0
0
11111101
1000
111
1101
10010
111
1100
11110
100101
100010
100110
100000
11000
1110
1010
101
11111111
11111110
1
1
1000
110
1000
111
111
11111111
0
10
11111011
0
11110100
0
11111000
100
11111100
10
11
10
111
1011
101
11111101
11111110
11111111
11111101
11111101
1
0
11111101
0
11111101
11111011
11111110
110
11111111
0
0
110
100
11111111
11111001
11111000
11111100
11111101
10
0
11111110
1000
1000
101
0
10
101
1001
0
10
11111100
110
1
11111011
1
10
11111111
11111101
1
1010
10
11111001
0
11111110
11111011
1
10
0
11
11
100
1
1
100
100
0
10
100
11
0
11111100
0
11111001
1
0
11111011
11
1001
1
110
11111111
11111100
11111011
11111011
0
11111111
11111111
100
110
10
11111111
10
11111100
11111111
11
11
100
100
10
11111010
11111100
1
111
1001
11111110
0
11111011
11111100
11111100
11111100
11111110
0
11111110
1
1
100
101
11
11111111
0
11111010
11111110
1
0
11
10
11111101
11101111
0
11110111
1
11
11
11110101
11111001
0
11111000
11110101
11111101
11111010
11111111
11111111
11111100
0
10
10
0
11111010
1
100
0
11111010
11111111
11111101
11111110
11110000
11110011
1100
101
11
110
11111111
11111000
1
11111011
11111011
11111001
11111011
11111001
11111101
11111000
11111111
110
111
10
10
11111101
110
11111011
11111100
11111100
11111110
11111101
11
11111110
100
1010
111
100
0
11111000
0
11111011
1
11111010
11111100
11111100
11111010
11111001
11111110
11111110
11111110
0
0
11111111
11
11111101
0
11111111
11
11111101
11111110
11101001
11111100
111
10010
1010
0
101
11111110
11111001
11111100
11111100
0
11111000
11111011
11111101
11111101
11110101
11111011
11111100
11111011
11111101
11111111
11111101
11110111
11111011
11111010
10
11111100
11110011
11111000
11111100
1001
1010
0
1
11111100
11111101
11110011
11111000
11111000
11110110
11111001
11111100
11111001
11110111
11111100
0
11111101
11111101
11111110
11110110
11110100
11111000
0
1
11111010
11110111
0
0
11111100
10
11111110
100
1
0
1
11110111
11111000
11111000
11111011
11111010
11111000
11110101
11111000
11111011
11111101
1
11111110
1
0
11111110
11111010
11111110
11111100
0
101
10
11111100
0
0
1001
111
11
10
11111000
11111011
11111010
11111010
11110100
11110110
11110001
11110100
11110111
11111001
11111101
0
101
1
11111010
11111011
0
0
11110100
10
111
11111001
11111010
11111110
1011
1001
110
0
100
0
11111111
0
11110011
11110011
11110010
11110010
11110110
11111011
0
1100
1011
0
0
11111010
10
11111011
11111011
1000
0
11111010
11
0
1110
111
111
1000
1100
1001
1110
1010
1
11111100
11111010
11111001
10
1001
1001
1000
11
0
100
11111100
11111011
0
0
1100
11111010
100
100
10
1001
110
110
1100
1111
10001
1101
1101
1110
111
101
1011
1110
10000
1111
1001
110
1
110
11111100
11111100
1
11111100
110
11111111
101
11111010
0
100
10
1000
1001
1100
10000
1100
10110
11000
10001
1101
110
111
110
111
100
1001
101
1000
0
0
11
1011
0
1
101
11111101
11111100
0
110
100
110
101
1000
1000
1000
1011
10
1
11111101
1
11
110
11
110
100
11
100
111
0
110
11111100
0
11111110
11111101
11111100
11111110
11111111
11111110
11111110
11
100
10
11111111
10
0
11111111
0
11
11
1000
101
11
11111101
10
110
111
11111101
1011
0
11111111
11111111
11111110
0
11110111
11111100
11111110
11111110
11111111
0
1
0
0
11111111
1
110
101
11
100
1
11
10
11
10
111
11110111
101
0
0
0
11111110
11111001
11111111
0
11111111
11111101
11111010
11111101
0
100
100
0
0
110
1
11
10
11
101
0
11111111
0
11
11110110
0
0
1
0
11111111
11111000
1001
111
0
11111101
11111100
11111110
100
100
1
11111111
10
110
0
11
10
11
101
0
11111101
11111111
101
1100
11
0
1
0
11111000
1111
1101
1001
11111111
11110111
11101111
11101100
11110010
11111111
11110100
11110001
11110111
11111000
11101110
11100110
11100011
11101001
11111101
1000
100
11110011
11101100
11111101
11111100
1
0
0
0
0
1011
110
111
100
11110001
11100111
11101001
11110100
110
11110101
11111001
11111100
11101101
11101100
11101100
11111111
1
11
100
100
0
11
0
0
0
1
1
11111111
10
0
11111100
11111100
11111100
11111110
10
1011
1000
10101
11
11111100
1011
1111
1
1110
10
101
111
0
0
0
11111111
0
