0
0
0
1
0
0
11111111
0
11111111
0
1
0
0
0
11111111
1
0
0
0
0
0
0
0
0
0
0
0
0
0
0
0
11111111
0
0
0
1
11
110
1010
1001
1010
1100
11110100
11110101
11111001
1010
101
101
101
100
10
10
0
0
0
0
0
0
0
0
1
0
10
110
1000
1000
101
100
1010
11111111
11111010
11111011
11111110
1100
10100
10101
10010
10100
1100
11
11111111
11111100
0
11111111
0
11111111
11111001
11111011
0
111
1010
11111101
1000
1
11
1001
11
11111100
11
111
101
1011
110
11
10
1001
0
10
0
11111110
110
11111111
0
0
11111001
11111000
11
1000
101
0
111
1000
100
111
1100
100
0
0
0
11
0
0
1
0
11111111
10
111
1111
1001
1000
0
0
11111000
11110110
10
1010
100
1
10101
11001
10001
1110
1111
1100
1001
0
0
11
1000
100
1000
11111101
11111101
1100
1001
1000
1000
110
11111111
0
1001
110
11111000
1010
10001
1101
10101
1101
1011
0
10
1
1
10
0
0
101
11
1110
0
0
1
1100
1001
110
101
0
11111111
101
10
11110011
11
10010
1011
1011
110
11
11111100
11111001
11110110
11110101
11111110
0
1
1000
1000
110
11111110
0
10
1100
0
10
101
101
10
100
11110100
11111110
101
1
1
10
10
11111000
101
11111001
11110011
11110010
11111010
100
10
1110
1101
111
0
11111111
100
11001
1100
11111111
10
0
11111101
0
11111000
111
1
110
10
0
11111111
11111111
10
11
11110100
11110011
11110111
1
1001
10000
10010
10001
11111110
11111011
0
110
1100
11111111
11111010
0
11111010
1
11110011
100
11
10000
11
11111100
11111111
0
1
0
11110110
11110000
11110010
11111101
111
10010
1111
1101
11111101
11110001
11
11010
11111111
11111010
11110111
11111101
0
11110110
11110010
11111001
11111100
1110
101
1
0
1
11
0
11111100
11110110
11110001
11111101
101
1001
1
1
11111110
11110010
1
110
0
11111000
11110101
0
100
11111001
11110101
11111011
11111111
0
110
0
110
111
10
0
11
11110110
11110111
11111110
110
1100
1001
11111110
11111001
11110101
0
1001
110
10
11111011
0
100
11111011
11110101
11111010
110
11
1
10
100
1010
1
1001
100
11111000
11111110
100
1001
10001
111
11111101
11111110
0
110
1010
1010
1001
111
11
101
11111011
11110011
11111001
11
111
1
101
1001
101
1001
1000
0
11111001
0
11
10000
1000
11111101
0
11111101
11111111
100
0
11111000
11111011
1000
10
0
11111001
11110111
0
1000
1001
11111101
11111100
1001
111
11111100
0
11111011
11111011
10
100
10011
10100
10000
1100
110
10
1110
1110
11111011
11111101
1001
11111111
11111011
11110110
11111110
0
101
1001
11
11111100
100
1
0
100
11111110
11110111
100
1101
11000
11010
10010
1
11111110
10
1100
11111111
1111
10000
1001
0
11111001
11110101
0
101
1100
10100
10100
10000
1100
101
110
110
11111001
11110001
100
10010
1111
1001
11111000
11111101
100
0
0
0
10
1111
100
11
11111010
11110101
0
10011
10011
10011
10011
100
11
11
1001
111
11110110
11110100
111
10011
0
11111100
11110100
11110110
1
110
1001
1000
11111001
1000
11111100
11111100
0
0
100
111
1101
0
11110110
11111011
0
111
111
1
11110111
11111101
10
111
110
101
11111111
11111111
0
1000
110
100
11110010
11
11111001
0
11111100
0
1001
110
10
11111101
11111100
11111011
11111101
100
11111011
11111001
11111111
11111111
0
11111110
1
0
11111100
11111101
11111110
11111110
1111
1
11111110
10
11111011
11111101
11111010
11110100
1010
110
110
100
100
110
11111100
0
0
1
11
11111110
11111001
10
1010
111
11111101
0
101
1
1100
11111010
11110110
0
0
11111110
11111100
11110110
11
1000
11111101
11
0
11111101
11110111
101
111
1001
1000
11111110
11111110
11
110
0
11111111
11111101
1001
1001
0
100
11111000
11110110
0
0
1
0
10
1000
11111010
11111100
10
11111100
11111110
111
110
10
100
110
100
11111110
11111101
11111101
0
0
1010
111
1000
11111010
11111001
11110011
0
0
0
0
11111100
1
100
11
111
10
101
1100
10001
1101
1001
1001
1110
10000
100
11111100
100
1
0
0
11110111
1
11111010
11111001
0
0
0
1
11110111
11111001
0
1000
1000
100
1101
10110
10110
101
11111101
0
110
111
1010
101
1101
11111110
0
11111111
100
11111110
101
110
0
1
0
1
11111101
11111100
111
10000
10010
10100
1000
11
0
11111010
0
11110111
11111100
101
11
1
111
11110011
11101111
11111100
11111000
11111111
1
0
1
0
0
0
0
1
1
0
0
0
0
11111110
11111101
10
11111010
11101101
11110010
11110111
11111101
11111011
11110110
11110010
11111111
100
0
0
0
0
11111111
