0
11111111
0
0
0
0
1
0
0
0
0
11111111
10
100
11111110
0
0
0
1
0
0
0
0
0
0
0
0
11111111
0
0
0
0
1
10
1001
1100
1100
1101
1110
10001
10000
11000
1001
11
0
11
1100
1010
1001
111
101
100
0
0
1
11111111
1
0
1
1
11
101
1110
10101
10111
101
10
100
1000
1110
11100
11101
10101
10101
1110
1011
11
10100
1110
1
11111100
11111010
0
0
0
11111111
11111110
11
11
1000
110
10
11111010
1
111
1011
1100
10100
11110
10011
100011
11010
1010
110
1001
1
110
0
11110111
11111000
110
0
0
11111010
11111000
11110111
11111100
0
1
0
0
111
100
1
1010
1101
11001
10100
10101
100000
10101
1111
10001
0
0
100
0
11111111
1
110
11111111
0
0
0
11111010
11111011
11111100
11110110
11111000
11111101
11111111
11111110
0
11111110
11
0
1011
110
101
11111111
110
1111
1101
1100
1011
1
11
110
0
11111100
11
11110110
11111101
11110110
11111100
11111100
11111011
11111000
11110100
11111011
11111110
11110111
11110011
11110101
11111010
11111001
11111100
10
10
100
1001
1110
10111
111
1100
100
0
11111001
111
11110101
11111100
11111101
11110100
11111011
11111001
11111100
11111111
10
11111000
11110110
11110011
11111000
11110111
11111100
0
1
0
111
110
101
1100
1111
1110
0
110
11111100
101
11110110
11111100
11110110
11110101
11111100
11111101
1
10
0
11111101
11110111
11110110
11110110
11110110
11111110
0
1
1
100
111
1
1110
1000
11011
101
0
11111010
1011
11110110
11111100
11110011
11111000
11111001
11111101
11111001
11111100
0
11111100
11111000
11110100
11110101
11111110
11111100
0
11111110
10
110
11111110
100
100
1
1010
11111001
0
11
11111111
11111101
101
11111101
11110111
11111100
11111100
11111101
11111101
0
100
11111110
11111101
0
11111110
1
11111111
11111011
11111111
1
111
11111111
10001
11110101
0
11111001
0
101
11111010
11101111
11110010
11111111
11111101
1
0
0
0
0
101
101
1
11111101
11111110
11110111
11110111
11111010
0
101
11111111
11111111
1000
11111110
111
11111000
11111111
11
11111011
11110011
11101111
11111010
0
10
11
0
111
1011
10001
1101
11111110
11111010
11111010
11111001
11111001
11111011
1
10
110
11
1101
0
11111101
11111000
100
100
11110110
11110001
11101111
0
0
0
101
100
101
111
1001
0
11111001
11111011
11111010
11110111
11111010
11111101
10
1
110
1001
110
0
11111110
110
1000
100
11111111
11110100
11111011
11
100
0
101
11111111
100
111
10
0
11111100
11111010
11111011
11111001
11111000
11111110
0
0
1001
111
1000
0
11110110
0
11
11111111
110
100
11
1000
11111111
111
10
101
111
100
10
1
0
11111100
0
11110110
11111010
11
11111010
11111110
0
100
110
10
11110111
10
11111010
11110111
11111110
110
11111011
1000
101
1
101
11
10
110
111
11
101
101
11111010
11111010
0
11111100
11111101
11111100
11111000
11111111
11111110
1010
11110101
11111110
0
11110111
11111110
10
0
11
101
0
11111111
11
11
1000
11
111
100
0
1
11111111
11111100
11111100
10
0
11111010
11111111
0
11111111
11111111
11111110
11111000
11110100
11111110
10
1
0
0
100
100
100
1000
110
1010
1100
100
101
10
11111011
11111010
11111010
0
11111101
11111001
0
1010
11111101
1
100
11
11111000
11111000
10
11111000
11111111
0
11111111
10
10
1010
111
11
1001
110
110
0
1
11111101
11111010
11111110
0
0
1
11111110
11111011
11111001
11111111
0
1
11111111
100
1
10
10
11111011
11111111
11
111
111
1001
10
10
1001
11
11
101
1
1
11
11
11111100
11111001
11111011
11111001
100
1
11111001
11111101
111
1
1
0
11111100
11111111
101
0
100
11111111
111
110
1000
0
11
110
111
11
100
110
100
11111010
101
1000
11111110
0
11111110
11111110
100
11111000
101
0
0
11111111
0
10
111
0
1000
11
110
10
10
1000
1011
11
111
10
111
11111010
0
110
11111101
11111111
11111111
111
1001
11111001
0
11111110
11111111
110
100
111
1
101
110
110
1000
1011
11
0
100
11111100
11111011
11111010
10
11111010
10
100
0
1
0
11111011
0
11110011
11110110
11110110
11111001
1
1
1
10
110
1000
1000
111
111
11111110
11111011
11111011
11111001
11111011
0
0
0
1000
11111101
11111111
0
0
11111100
11110011
11111000
11111101
11111101
11111000
11111011
11111001
11111100
11111101
11111001
11111111
11111010
1
11111010
11110100
11111011
11111100
11111000
11110000
11110001
11111111
11111010
11111100
0
1
1
0
11111111
11111100
1001
11111100
11111000
11110011
11110010
11101001
11101010
11111011
11111111
11110111
11101110
11101101
11110011
11111100
11110110
11111000
11110000
11111000
11110101
11111011
100
1
0
0
11111111
0
0
0
11111111
11111100
0
11111111
11111101
1
11110111
11111101
1
11110101
11110001
11111100
11110100
11110010
11111010
11110111
101
11111011
11111000
0
0
0
0
0
