0
0
0
0
0
1
11111111
11111111
0
1
0
0
0
11111111
11111111
0
1
0
0
0
0
0
0
0
0
0
0
0
0
0
0
0
0
0
11111111
11111110
1
10
0
11111110
11111101
11111100
11111111
110
11111111
0
11111100
11111111
11
100
10
11
0
0
0
0
0
0
0
11
100
0
11111011
11111111
11111111
11110011
11101101
11101010
11110000
11101110
11110000
11110011
11110111
11110110
11110100
11111101
11110011
11110110
11111110
1
10
11111111
0
0
0
0
101
110
1
11111000
11110101
11111001
11111100
11110111
11111010
11110111
11110110
11110101
11110110
11110011
11110100
11110100
11110100
11111010
0
11111110
1
11111011
11111100
11111011
10
0
0
1
101
1010
1000
110
11111011
11110111
11110000
11110001
11101101
11111001
11110010
11110001
11110010
11111010
1
0
0
110
11111111
11111111
0
110
11
0
11111100
0
0
0
100
101
100
110
11
111
11
11
10
10
10
11111000
11111011
0
11111011
11111101
11111111
11111101
11111001
11111101
11111100
11111100
100
11111010
11111010
11111111
0
11111100
11111111
10
11111111
1
100
110
10
101
101
0
11
100
10
0
100
100
11111111
0
11111110
11111111
101
0
1
11110111
11111001
1
10
110
100
1010
11111101
11111011
0
11
11
10
0
11111110
11111111
100
1
11111111
110
111
1
0
110
11
11111101
0
1
11110101
11111110
1
11111100
0
11111111
111
10
0
0
111
1001
1
11111110
11111101
11111101
11111101
110
100
10
101
11
0
111
0
11111010
11111110
11111111
11110011
11111010
1
110
1111
11111101
11111100
11110111
11110101
0
11
101
100
11111110
11111011
11111100
0
111
1001
110
101
11111110
0
11
11111110
10
0
1
11110111
11111000
111
1000
110
1000
11110011
11110100
11110110
11111001
11111110
10
1
11110111
11110111
11110110
101
1001
10000
1010
1
11111100
0
10
0
0
11101110
11111001
100
0
1001
111
0
11111101
1
0
11111110
11110110
10
100
11
11111110
11111011
11111111
10
1001
1111
110
0
11111011
11111110
0
11111111
1
0
11110111
11111111
11111101
1010
100
1111
11
11111011
11110100
11110000
11111101
1010
0
0
11111001
11110110
11111101
11111101
110
1110
101
0
0
11111001
11111001
11111111
11111111
11111010
11110010
100
10
111
11111101
111
1000
11111010
11110000
11110111
11111110
100
11111100
11111100
11110111
11110011
11110011
11111101
10
110
110
10
11
11111101
11111010
11
11110111
11111111
11111101
11
11111110
11111000
11111110
10
1
11111101
11111010
11110101
11111011
10
11111010
11111000
11111011
11111001
11111001
11111101
110
1011
1000
11
1
1
11111101
11111110
11111100
11110111
11111000
11111110
1
11111001
0
0
11110110
11111011
11111000
11110000
11111100
11110111
11111001
11111000
11111101
0
11111011
0
1000
1010
11
1
0
11110111
11111110
1
10
11110100
11110111
11110111
11111101
11111101
110
1
11111010
11110011
11111000
11110101
11111010
11111001
11111110
0
11111100
11110111
11111101
101
1000
100
110
11
11111110
11111110
0
11111111
11111001
11101110
11101111
11101101
11111010
11111010
0
1000
11111011
11101110
11111100
11111111
10
11111100
11111101
0
11111100
11111011
11
1000
1001
0
100
0
10
0
11111110
11111110
11111011
11110101
11111100
1001
100
11110111
110
100
11111111
11111000
11111110
11111101
11110110
11111110
1
11111011
11110111
11111101
111
1000
11
0
0
11111010
0
1
11111100
11111010
11110011
11110110
11110111
101
1001
100
0
1010
1000
11110011
10
11111111
11111001
11111011
11111111
11111101
11110111
0
111
1
11111110
11111000
11110100
11101110
11101111
11110110
11111010
10
11110111
11101100
11111000
11
11111111
111
0
110
1
11111000
11110101
11111010
11111001
11111100
11111110
11111000
11111110
10
101
0
11111100
11110011
11110001
11101100
11100100
11101001
11110001
0
11111100
11111000
11110100
11111011
10
11111111
10
11111101
11111100
11111101
11111110
10
11111100
11111011
11111011
11111100
0
11111111
11111101
11111010
11111001
11110011
11110010
11101000
11101101
11101111
11111000
10
0
11110110
10
0
1000
1
0
0
11110001
11110111
11
0
11
11111111
11111100
1
11111111
11110111
11110111
11110110
11111100
11111010
11111000
11110101
11110011
11111111
11111111
11111111
11111100
11110100
0
11
1000
0
0
11111111
11110010
11101111
1
11111110
1000
100
11111001
0
11111010
11111001
11111001
11111100
11111011
11110101
11110101
11110001
11110110
11111011
11110011
11111100
0
11111100
101
11111100
1011
1
0
0
11
11111001
11
11
0
1
11111011
11111011
11111010
11111100
11110110
11110111
11111011
11110010
11101100
11111001
11101110
11110110
11110110
11111100
11111100
11111011
100
0
110
0
11111111
11111111
11110110
1010
111
10
11111110
11111110
11111110
11111110
11111001
11111111
11111010
11111001
0
11111001
11111001
11110111
11110111
11111001
11111010
11111011
11111100
11111001
101
11111111
11111100
0
11111111
0
0
11111111
11110000
11111111
11111101
11111010
0
11111111
11111100
11110101
11110011
11111100
11111001
11111110
11110101
11101111
11110101
11110101
11111001
11110011
10
11111101
11111011
100
1
0
0
0
11111111
0
1000
1111
11111001
11111101
11111101
11111011
11111110
11111010
11111110
1001
11110111
11110101
0
0
11111110
0
11111011
0
1
101
1
0
0
0
