0
0
11111111
0
11111111
0
0
0
11111111
0
0
0
0
0
0
0
0
11111111
11111111
0
0
0
0
0
0
0
0
0
0
0
1
0
0
0
0
11111111
11111100
11111100
11110110
11111001
0
11111111
11111001
1
100
100
11111011
11111110
11
11111110
110
11
0
0
11111111
0
0
0
0
111
1000
11111101
11111101
1
11111001
11110101
11110111
11110111
11110110
11111000
11110000
11101100
11110001
11110001
11110011
11101001
11100100
11101001
11101111
11111010
11111010
11
0
0
11111111
11111111
101
101
100
11111000
11111100
11111101
11110010
11111100
11111000
11110010
11110111
11110111
11111100
11110111
11110100
11111011
11111011
11111001
0
11111111
11110010
11111100
1
11111100
0
1
11111111
0
100
10
111
1001
110
11111001
11101101
11101011
11101011
11111010
11110110
11111111
11111110
1
0
11111110
11111001
0
11111011
11111111
0
0
11111010
11110001
11111110
11111100
0
0
11111100
1
1111
110
1000
11111000
11110001
11110010
11110010
11110110
11111010
0
1
1
0
11111110
11111000
11111101
11111111
1
11111111
11111110
11111011
11110011
11110101
11111000
0
11111111
100
11111111
10000
1
110
0
11111001
11110100
11111011
11111001
11110101
11111110
11111110
11111001
11111110
0
100
1011
11
100
1
11111011
11110101
11111000
11110001
11110101
0
101
0
11111111
0
11111000
11111101
11111011
11111111
11111110
11111011
11110110
11111110
11111001
11111100
11111110
11
100
101
110
101
1
0
100
11111110
11111111
11110110
11111000
110
11111111
100
110
11110111
11111100
11111101
11111001
11111010
0
11111011
11110101
11111101
11111111
101
100
111
101
11
0
11
10
11
11111101
11111110
11111010
11111010
1
0
1010
11111011
11111011
11110101
11111111
11111011
11111010
11111000
11111110
11111011
11110110
11111111
1
11
11
101
110
110
110
1
10
100
11111101
1
11111001
11110101
11111010
0
101
11
11110111
11111001
11111001
0
10
11111010
11111101
11111011
11111011
11111011
11111100
11
111
101
1
111
1
110
11
10
0
1
11111100
11111100
11
11111110
1001
1000
111
0
11111001
10
10
11111100
11111100
11111110
11111101
11111001
10
1000
1000
11111110
1
10
0
11
11111111
11111110
101
101
11111001
100
1011
11111110
1
111
1000
1
100
11
100
1
0
0
0
11111100
1
11
1
11111101
0
11
11
11111111
11111010
0
11111110
11111101
11110111
1000
1000
10
111
110
101
1010
111
11111110
101
0
0
11111110
11111011
11111111
0
11111101
11111100
11111011
11111101
1
0
11111111
1
11111111
11
11110110
11110111
11111101
11111010
0
100
1001
10
110
0
11111101
1001
10
10
11111101
11111101
11111110
11111110
0
0
11110111
11111101
0
11111110
10
11
10
111
10
11111010
0
11111010
0
111
11111010
11110111
10
11111110
0
111
100
11111110
11111000
11111110
0
11111011
11111101
11111111
11111100
11111111
1
11111110
0
11111101
11111110
100
1
0
101
11110110
0
0
11111001
11111000
100
100
11
11111111
10
11111010
11110100
11110110
11110011
11110111
11111010
11111100
10
0
11111111
11111011
0
11111100
11110111
11110110
10
11111111
11110111
101
0
101
11111000
0
11111010
10
11111111
10
101
1
11111110
11110111
11110100
11111001
11111110
10
110
100
0
11111111
0
11111100
11111000
0
10
110
11
101
100
0
11111111
11111100
11111010
101
1
100
111
100
101
10
11111101
11111100
1
1
10
110
100
11111110
11111101
11111011
11111101
11111100
0
1010
1011
1
11111101
1010
10
0
0
101
10
0
1
11
11111110
11111111
10
0
0
11111110
0
10
11
11111010
11111101
11110111
11111011
11111001
0
1111
1
111
0
1000
1
11111100
1
110
11111111
11
1
1
11111111
1
0
10
1
11111111
11111111
110
10
11110010
11101010
11110011
11110111
11110100
11111100
1010
1100
110
11111110
11111010
1
11110110
11111011
0
11
10
10
110
101
1
11111111
11111101
11111011
11111011
11111110
11111101
11110000
11100010
11100100
11110100
11110110
11110011
11111000
111
1000
110
11111111
11111101
11111011
1
11110111
11111011
1
10
11
1000
10
11111111
10
0
0
11111100
11111001
11110100
11100101
11011110
11101000
11110101
11111111
11110011
11110101
111
1001
110
11111111
0
100
11111100
11111111
11111000
1
11
1
11
10
10
0
1
11111101
11111101
11111001
11110101
11100110
11011101
11101011
11110101
0
11111011
11111100
0
11111111
0
0
0
100
0
10001
1100
0
10
10
11111111
11111100
11111001
0
11111010
11111001
11111011
11111110
11111010
11101000
11101111
11111010
11111011
11111100
11111001
11111000
11111111
110
0
0
0
11
101
10
101
11111100
10
1
1
11110110
11110110
11110110
11110011
11111100
11110100
11110101
11101111
11101011
11111101
110
10
1001
11111111
11111111
1
0
0
0
0
0
100
11111101
110
11
101
101
11111101
11111011
10
101
10001
1111
110
0
11110110
11111011
11111010
11111101
11111111
1001
0
11111010
11111101
11111111
11111111
0
0
0
0
11111100
11110111
100
101
110
11111111
1000
11
11111011
11
1110
111
111
1000
101
1000
0
0
100
11111010
0
1
0
0
