0
0
0
0
0
0
0
11111111
0
0
0
0
11
10
0
0
11111111
0
11111111
0
0
0
0
0
0
0
0
0
0
0
0
0
1
0
11111110
0
11111111
111
1110
10111
1110
1011
111
0
11110110
11110110
11111011
11111110
0
0
10
100
0
0
0
1
0
0
0
11111111
110
110
1000
1
111
111
10101
100001
11110
11011
10111
10001
100
1011
1100
110
101
100
1000
1000
11111111
11111110
11111111
11111111
1
1
11111111
100
1001
10
11111100
1
101
101
11
1
10
11111111
11111101
11111011
11111110
1011
10001
10011
10001
101
1
10
11111001
11111011
101
0
0
11111111
11111101
1
11111110
11
11111110
10
100
11111011
11
11
11111101
11111100
11111101
10
10
0
100
1101
101
111
100
10001
1100
110
11111001
11111100
1
11111111
0
1001
11111110
11111111
11111111
11111011
11111111
1
0
11111000
11111101
11111101
11110101
11110110
11111100
11111111
11111111
11111100
100
101
101
1001
11
11
11111110
1
0
11111110
11111100
11111110
11111011
11110110
11111101
11111110
11
111
1
11111111
11111111
11111011
11110110
11110111
11111100
11111110
11111111
1
10
10
10
11111100
11111011
11111011
11111101
1000
0
0
11110101
11111101
0
10
11
101
110
101
11
1
0
11111011
11111111
11111100
11111111
101
1
11111111
0
0
101
11111110
1000
0
111
1000
11111111
11110110
11111010
110
0
11
100
0
11111101
11111111
10
1
11111100
11111010
11110100
11111100
1
10
1
0
11111110
10
11111101
0
11111100
0
11111110
11111101
11111100
11111101
111
11111111
11111110
11111101
0
11111111
11111111
0
11111111
0
11111010
11111000
11110100
11111001
11111111
11111100
11111110
10
11111011
11111000
11110110
11111010
0
11
11111010
11111011
11111100
1
11111111
11111111
11111111
11111011
11110110
11111100
10
11
10
0
11111101
11111011
11111011
0
11111111
100
10
0
11111101
11111111
11111110
11111011
11
11111111
1001
1
0
1
0
11110111
1
11111101
11111100
11111001
11111110
1
11111111
11111011
11111100
0
0
0
0
1
100
1
10
11
11111111
0
1011
1
110
11111000
11111111
0
0
11110111
11111001
11111001
10
0
11111011
11111110
0
0
101
1010
11
11111111
11111101
1
1
0
100
10
1
11
110
11111110
11111001
11111000
101
11
11111101
11110011
11111111
10
0
0
0
0
11111110
11
110
1
11111100
11111100
11111110
11111110
0
11
0
11
11111101
11111101
11111011
11111011
11111011
11111000
11
100
11111111
11110000
1
100
0
10
101
10
1
100
10
11111110
11111101
11
10
0
11111101
0
11111111
10
101
11111101
11110101
11111011
11111110
11111000
11
100
1010
11110001
11111100
11
10
101
1
101
1
0
0
11111111
1
0
1
11111010
11111011
11111111
11111110
101
11111111
11
11111101
11111011
1011
11111011
11111101
11
11
11111000
11111001
100
11111101
11
101
1
11111111
10
11111111
1
11
11111110
11111001
11111001
11111111
11111011
11111011
11111111
11111100
0
100
11
11111000
11111010
0
100
0
11111101
11111000
11111101
11111110
1
11111101
100
111
11
0
0
1
11111011
11111000
11111010
11111110
11111111
11111101
0
1
11
0
11111100
11110101
11111001
11111001
10
11111011
0
11110011
11101011
11110110
11101111
11101110
11110100
11110111
11111011
11111010
11111011
11111001
11111000
11110111
11111010
11111010
11111001
11111110
110
101
1010
11
0
11110111
100
100
11110111
0
11111100
11101110
11100100
11101010
11011111
11011011
11010110
11011111
11101101
11101011
11110110
11111100
11111111
11111101
11111101
11111111
11111011
11111100
0
11111111
11111111
11111100
101
11111100
1001
0
11111100
11111111
110
11110001
11100110
11110001
11101111
11110010
11101100
11100110
11101100
11101101
11111010
0
101
11
0
100
11111100
11111100
11111100
11111101
11111111
0
111
0
10
101
10
110
111
11111100
11110011
11111111
10
0
0
11111101
11111101
11111001
1
101
1001
10
11
11111111
0
11111110
0
11111011
10
11111110
11
0
0
100
100
11111111
11111101
101
0
100
100
101
110
111
1000
1
110
101
101
1
100
10
101
11111101
11111101
11111110
10
11111111
0
101
11111110
0
11111111
101
11111100
1010
1100
1001
1100
1100
1001
1010
11
111
100
101
11
1
100
11111111
11111111
11111111
11111000
11111000
11111111
11110101
11110111
111
0
0
0
11111011
11111011
100
10001
1000
1100
1110
1100
111
10
1000
111
100
0
10
110
1
11111101
11
11111100
11111100
101
100
100
11111111
11111111
11111111
0
100
0
111
1010
1011
100
1000
1000
1001
101
111
111
0
1
11111111
11111101
101
110
0
11
1001
1010
110
101
11111101
1
0
1
11111111
101
1100
100
110
110
0
0
100
11111111
0
11111000
11110101
11111010
11110100
11110110
11111001
11
11111001
11111011
11111001
11110100
0
11111111
0
0
0
0
0
0
0
11111110
0
11111100
11111100
11111001
11110110
11111010
11111010
11110011
11110001
10
11111010
11110011
11110100
11110111
0
11111000
11111000
11111011
0
0
0
11111111
