0
0
0
0
11111111
0
0
1
1
11111111
0
0
0
0
0
1
0
0
1
0
0
0
11111111
0
0
0
0
0
0
0
0
0
1
10
0
1
0
0
0
0
1001
1101
1
1
10
1100
1001
100
1001
1001
11
11
0
1
11111111
0
0
0
0
11111010
1100
1010
11111001
1
11111000
11110010
11110011
11110100
11110001
11110100
11111110
11
1010
1010
1011
1000
1011
11
110
101
1111
10
0
0
1
0
11111111
11111110
101
11111001
0
110
101
11111111
11111010
11110101
1
100
110
100
11111100
11110111
11111101
1
11
11
11111110
0
1000
10
10
0
0
1
11111010
11
11111110
1001
0
100
11111111
11111011
11111100
1
11
11
0
11
0
11111011
11111110
11
11111110
1000
1
11111110
11111100
11
1100
11111110
0
0
11110110
1000
1
1010
11111101
11111010
11111110
11111111
1
110
100
0
11111111
10
10
0
0
10
100
11
1
0
1
0
11111110
11111011
11111111
11111110
1
11111001
110
0
1
11111100
10
10
0
11
0
0
11111101
1
10
1
11
111
100
100
11111111
1
1011
110
1100
1001
0
10
11111111
11111010
0
11111110
11111010
11111110
0
11
0
11
0
0
11
11
10
111
1001
100
1010
100
10
11111110
100
1111
11001
1010
11111111
11111000
0
11111010
11111100
0
11
10
1
100
100
101
110
11
0
11111101
11111010
11111000
1
11
1000
101
111
0
10
100
10010
1100
11111101
11111010
11101011
11111011
0
0
101
0
1
11111110
0
100
1
10
11111010
11110100
11101111
11101000
11101001
11110011
11111000
1
100
0
11111111
101
1011
1001
11111101
11110101
11111010
11111101
0
1
11111101
1
1
11
0
10
0
11111111
11111101
11110100
11110001
11110110
11101011
11100111
11100100
11101100
11101001
11011110
11101111
11110011
101
1001
11111101
11110110
11111000
0
101
11111101
11111011
11111111
0
11111110
0
10
110
10
11111111
0
11111110
0
0
11110101
11100011
11101000
11011000
11001101
11011011
11110010
11111100
0
11111101
11110011
11101110
1
11111101
11111110
11111101
1
0
11111110
1
1000
101
1
1
0
11111011
1
11111111
11111111
11111011
11111001
11101001
11100110
11100110
11110111
11110011
11111100
11
11110111
11110000
110
11111110
100
0
11
11111111
11
0
0
11111110
1
10
11111111
0
0
1
0
11111111
10
11111101
11110110
11101011
11110001
11110001
11111001
111
101
11110010
11111101
11111000
11111010
10
1000
0
11111101
11111110
11111111
11111011
11111110
111
1
11111110
0
11111110
100
10
100
11111101
11110101
11111100
11110000
11111010
11111010
111
0
100
11111000
11110010
11101001
11110101
11110111
11111010
11111100
11111101
11111110
0
1
0
11111110
11111110
11111101
11111111
100
11
111
11111101
11111011
11111011
11111110
1000
11110101
11111101
101
101
11111010
11110001
11101010
11101100
11100101
11101000
11110011
11110101
11110100
11111001
11111010
11111110
0
11111100
1
11
101
0
11
1
11111011
100
11111111
11110110
11110100
0
1001
0
101
11110111
11110011
11110101
11110011
11101011
11101000
11011111
11100000
11101000
11101011
11111001
11111110
11111101
10
10
111
11
100
0
11111111
11
11111001
11110001
11110001
1
1000
0
111
1
1
0
10
10
11111010
11110100
11110000
11110001
11110101
11111000
11111011
11111011
10
11111101
1
1
10
11111100
1
0
0
11110100
11110111
10
11110111
11111110
110
1
100
111
10
1000
10
101
101
0
11111100
11111101
11111011
11111010
0
11111101
10
0
11
11111111
100
101
1011
11101100
11111000
0
11110100
11111011
10
10
0
101
11
110
10
110
1010
110
10
11111110
11111111
11111101
0
0
0
10
10
1000
0
10
0
11110111
110
10
11111110
11111011
11111110
100
10
110
1000
1
11
101
100
100
10
10
11111101
11111001
11111110
1
0
101
0
10
11111100
0
0
11111110
0
11
11111111
11111010
11111010
0
11111101
11111011
11111110
0
11111111
0
11111110
11111111
0
0
11111100
11111001
11111011
0
101
110
11
11111100
110
11110100
11111011
1000
11111110
1
0
1001
1000
110
11
11111110
11111001
11111110
11111010
0
11111110
0
100
11111111
11111101
11111011
11111100
11111011
11111011
11111110
100
11111100
11111111
11111010
10
111
1
0
0
11111101
110
101
110
11111110
11111101
11111110
0
0
1
1
11111111
11111100
11111010
11111011
11111101
0
11111010
11111111
11111110
11111101
11111111
11111110
11111011
11111100
0
0
11111111
100
11111010
11111001
101
11
11111011
101
11
1000
100
1010
1001
1
10
11111100
11111001
11111011
11111100
0
11
111
1011
1001
0
11111111
0
11111111
0
0
1
111
11111101
0
11111111
11111111
0
1010
1
0
10
10
100
11110111
11110001
11110110
1
0
101
101
100
0
11111111
0
0
0
0
0
0
11111111
11111111
11111101
11111100
11111011
11110001
11101111
11110011
11110100
11101100
11101110
11111111
1
11111001
11110011
11110111
11110001
11110101
11111000
11111100
0
0
0
1
