0
0
1
1
0
0
1
0
11111111
11111111
0
0
0
0
11
1
1
11111111
0
11111111
1
0
11111111
0
1
0
0
0
0
0
0
0
11111101
11111111
0
11111101
11111011
11110110
11111010
101
11
0
11110010
11111111
100
0
11110110
11111010
11110111
11111010
0
10
0
0
0
0
0
0
11111110
10
110
11111100
110
11111101
0
1
11111100
11111110
110
11111000
11101111
11110011
11101110
11110010
11110010
11101111
11111001
11110000
11110100
0
101
111
0
0
0
0
100
11
0
11111010
0
1
110
0
101
101
1001
1000
0
11111101
11111010
11111101
0
111
1001
101
11111101
11111100
0
11
11111101
0
0
0
11
110
11111000
11110111
0
11111110
10
110
1
0
100
0
1001
110
111
100
110
11
0
110
1
11111100
11111110
101
1101
0
0
0
11111011
100
11110011
11111001
0
1
11
11
0
0
11
10000
1010
11
110
1000
1001
111
0
10
0
0
11111010
11
100
11111101
1
0
1000
1
11111000
11111101
0
110
10
0
110
1000
1010
1111
110
0
110
100
1001
1001
1010
110
0
10
10
0
11
11111111
0
101
1000
1
10
11111011
11111110
101
1
0
10
10
111
1100
0
1
100
0
111
1000
10
1000
111
10
10
11111110
11111011
11111111
1001
1010
1000
11000
1001
11111100
0
0
101
100
0
10
1000
1100
1100
101
1000
10
1010
1100
101
0
110
10
11
11111111
11
1000
110
1011
1011
1010
1100
101
101
11111100
11111110
11
111
110
1001
1101
100
0
10
1
10
101
11111101
11111101
11111011
11111000
10
101
1101
11
110
1001
10000
1000
110
1011
1001
11111101
11111111
0
11
100
101
11
0
11111001
11111110
11111100
10
10
11111111
11111101
11111010
11111100
11111111
11110111
101
11111100
11
100
101
1010
10111
10000
110
11111100
0
11111111
1
0
0
0
11111011
11111000
11110111
11111010
11111111
0
100
11110111
11111101
11111011
11
11111100
111
11111011
0
1101
101
10100
11010
10010
11111110
1
101
10
0
11111101
11111001
11110101
11110111
11110110
11111000
11111110
11111111
11
100
11111011
11110110
11111110
0
10
1010
110
11111110
1010
100
11000
11111
1110
10
0
0
11111110
11111110
11111110
11111000
11110111
11111011
11111010
11111011
0
0
101
11111100
11111010
11110101
11110111
0
10
1001
1010
11111011
0
100
10000
1111
1010
110
10
11111110
10
0
0
11111000
11111011
11111110
11111011
11110110
11111110
111
1
11110111
11111000
11110010
11111101
11111010
11110010
1011
1010
11111101
11111111
11111010
100
1110
1111
10
1
11
101
100
11111100
11111101
11111101
11111110
11110111
11111010
100
1100
11111101
11111100
11110111
11110111
1
11
0
111
111
1
11111011
11111000
100
10000
10000
0
0
0
100
1
11111010
11111101
11111001
11111000
11111000
11111101
111
11
0
11111101
11111100
11
11
0
11111110
1000
1000
0
11110100
100
111
10000
1111
100
11
0
11111100
11111001
11111000
11111110
11111000
11110101
11111100
11
1000
101
101
111
0
11
100
100
1
111
1000
111
11111000
1010
111
10100
10110
1000
11
10
11111100
11111111
11111111
11111101
11110100
11110111
11111101
10
111
11111111
100
111
11111110
1
1100
101
100
1
11111011
11111100
1010
11111110
11111111
110
1101
1011
11
111
1
100
11111010
11111011
11110011
11110111
11111100
0
11
11111110
11
1
11111001
111
1001
11111110
1001
100
11111100
0
110
11111101
100
1011
100
11
1000
101
101
11
11111110
11110110
11110101
11110101
11111110
11110111
11111011
11111100
1
0
0
111
1
11111110
1001
11111110
0
11111101
11111010
1000
101
10
11111010
1011
100
0
1
1
11111101
11111010
11111100
11111101
0
1
0
10
11
10
1000
110
0
0
1001
111
1
11111011
11111100
11
10
11111001
11111010
0
111
100
0
0
100
1000
1010
1001
1000
111
1000
111
11111111
0
11
111
11111110
11111110
1011
0
10
11111111
0
110
100
11111000
11111000
11111000
11111101
10
1
10
110
1001
1010
1011
1001
1011
101
1
0
11111111
11111111
0
11111110
10
101
11110011
0
0
0
101
1100
11110101
11111010
0
11111011
11111010
11111110
11110101
11111111
111
100
100
1101
1111
11
1
10
11111110
11111111
1
11110111
11111011
11110111
10
0
11111111
11111111
11111111
11111100
11110110
100
11111010
11110111
0
11111111
11111101
0
110
11
1111
10111
11010
10010
101
11
10
11111100
11111011
11111011
0
100
101
11111111
1
0
0
11111100
11111000
11111110
11110011
11111100
1
100
1100
1100
110
11001
100011
11010
11000
10010
10001
1000
1110
10000
1110
1001
11111101
1
0
0
1
11111111
11111111
0
10
11
100
1000
1011
1011
10000
1101
1001
10000
10100
11111110
0
1001
1110
1011
100
1000
111
101
1
0
0
0
