0
0
0
0
0
0
11111111
11111111
0
1
0
0
10
1
11111111
0
0
0
1
0
11111111
1
0
0
1
0
0
0
0
11111111
0
0
10
100
1000
1110
1110
10101
11000
10001
1101
10
11111010
11111110
11111110
11
1111
10000
10000
1001
111
100
0
0
11111111
0
0
1
110
11
101
1100
110
10101
101
1
1001
1011
1
11111110
101
1101
111
101
1010
10011
1011
1111
10
1
0
11111100
0
0
0
11111111
11111100
0
11111100
1110
1110
0
1
11111110
11111101
11111111
100
101
11
110
1011
100
110
11
0
0
11111100
11111100
11111011
11111010
11
0
0
0
11111011
11110111
10
1000
11110111
11111101
11111011
11111100
0
11111011
11111110
11111110
11111010
11110110
11111011
11111101
10
111
110
0
0
1
11111111
11110110
11110111
11
0
0
101
11110110
10
11111010
11111000
11111000
11111011
11111100
11
11111101
10
11111100
11110111
11111000
11111010
11111010
11111100
11111111
0
101
0
10
0
11111101
11111101
10
0
11
1010
111
11111101
11110111
11111110
11111100
11111011
11111110
11111000
11111010
11111110
11111100
11110110
11110011
11101111
11110100
11110111
11111101
11111100
1
0
11111100
1
110
11111010
0
0
11
1011
111
1
1
11111101
11111110
11111101
11111010
11111011
0
11111100
11110100
11110011
11101111
11110011
11111111
0
0
1
11111110
0
100
110
1
11111010
0
101
101
11111011
100
10
11111100
11111110
0
11111101
11110111
11111000
11110110
11110001
11101110
11110000
11111000
11111100
101
11111111
11111111
10
110
0
101
1
0
11111000
11111001
11111010
11111000
11110110
1001
1000
11111011
11111001
11111100
11111010
11110010
11110001
11110111
11111001
11110101
11111111
0
101
1
1
0
0
11
11
10
100
11111010
11111000
0
11111010
11111011
11110011
11111110
11111110
11111011
11111010
11111010
11111000
11111110
0
11111111
0
111
1000
1010
100
10
11111101
11111110
11111111
11111110
1
11
1001
110
11111100
11111101
11111101
110
11110111
1
11111011
11111101
11111001
0
101
101
1001
110
1011
10000
1111
100
11
11111111
11111101
1
0
1
11111111
110
11111101
11111010
11101111
11111011
1
11111000
11111010
11
11110100
0
101
100
1010
1010
1011
1100
10001
10000
100
1
100
0
10
1
0
11111011
11
100
111
11111011
11110100
11111111
1
11111011
0
101
0
1100
1101
1010
1111
1010
1100
1000
1000
10
11111100
11
1
11111111
101
10
10
110
111
1001
101
11111101
11110100
11111101
11111010
11111011
11111111
11
1
10100
1010
1001
1011
1000
11
100
10
1
10
10
100
0
10
0
101
10
10
10
100
0
11111000
0
11111000
11111101
1000
1101
100
1001
10
110
1
11
11111111
11111111
0
1
11
101
101
10
0
101
10
11111101
11111111
11
1000
11111111
11111011
11111100
11111100
101
110
1101
10
110
110
110
11111101
11111110
11111111
10
11111100
0
11
10
0
0
0
11111111
11111110
11111111
0
11111110
101
10
0
11111011
11111111
10
1
1
11111110
0
10
11111100
11111101
11111101
10
111
11111110
0
1
11111110
11111101
11111110
11111110
11111011
11111101
0
111
11111101
11111110
110
11110110
11111010
11111000
10
11111111
100
0
11111011
11111011
11111011
1
11111111
0
11
111
110
100
0
10
11111110
0
11111011
11110111
11111001
11
11111101
10
10
11111010
1
0
0
11111100
11
0
11111000
11111100
0
11111110
0
1
1000
100
111
10
0
0
0
0
11111010
11111000
11111000
0
11111010
11111010
11111001
0
0
0
11111100
11111110
11111111
11111101
0
11111100
11111110
11111101
0
0
10
11
0
101
1
0
11111101
10
11110110
11111011
11111000
11111011
11110101
11101111
11110011
11
11111000
11111110
1
0
0
11110111
10
11111100
11111010
0
11111101
0
10
101
1
11111110
11111111
0
0
0
11111000
11111001
11110101
11111000
11111100
11111100
11110110
1010
11
11111111
11111111
10011
11111100
11111010
11111101
11111011
11111011
11111100
0
10
11111101
11111100
11111011
11110111
0
0
11111010
11110111
11111001
11110100
11111111
11111101
11110100
11110011
11111000
1110
110
11111111
1
101
110
0
10
1
11111101
11111100
1
0
11111011
11111101
11111010
11111111
11111100
11110110
11110001
11110011
0
11111010
1
0
11111100
11110100
11110111
1011
0
0
0
11111110
1110
10
11111111
11111100
11111101
10
11
1
11111001
11111000
11111101
10
11111001
11111101
11111011
1
101
0
11111111
1001
110
11111011
111
11
0
0
0
11111101
101
11111100
11110010
11110111
11110110
11110010
11111111
0
11111011
11111010
11111011
11111011
11111110
11111001
11110111
11111011
11111101
11111110
11111001
11111100
0
11111100
11111111
10
0
1
0
11111111
11111110
11110001
11111101
11110010
11110010
11111010
11111000
11111001
11111101
11111111
11110101
11100111
11101100
11111110
11111110
11110011
11110110
11110101
11110110
11111011
11111100
0
0
1
0
0
11111111
0
0
1
1
11111010
11111010
11111000
11111110
0
11111010
11111011
11110110
11100111
11110000
11110011
11110101
11110011
11110111
1
110
111
110
11111111
0
0
0
