1
1
0
0
0
0
0
0
0
0
0
0
0
0
0
0
0
1
0
1
0
0
11111111
0
0
0
0
0
11111111
0
1
0
0
1
0
11111111
0
11111111
11111110
0
0
1
0
0
11111110
0
0
11111111
0
0
11111111
0
0
0
0
1
0
0
0
0
11111111
11111111
11111110
11111111
11111010
11110010
11111100
11111111
11111110
0
11111000
11110100
11110101
101
1001
110
101
100
101
101
0
11111111
0
0
0
11111111
1
1
101
1
11111110
1
1
11110110
11110010
11111111
1
11111001
11111001
11111000
11110101
11
1111
1011
1010
0
11111101
11110100
11111010
11111110
0
0
0
11111111
11111110
110
11111110
0
11111110
11111101
0
11111000
0
111
0
11111100
0
1
11111101
11111001
0
11111011
11110111
10
101
0
101
1110
10
11111100
0
0
11111000
0
11111111
100
1
10
11
11111100
0
11
0
0
11111111
11111010
0
10
0
0
10
11111110
0
110
110
101
0
11111100
0
0
101
11111110
11111110
0
0
11111101
0
11111110
0
1
0
0
0
11111110
11111011
11111100
0
10
10
10
0
0
1100
10
11111111
0
11111111
1000
11111110
11110101
11111101
100
11111100
11111011
11
1
1
0
0
11111111
1
11
0
0
11
0
10
0
100
101
110
110
100
101
11111110
11111101
11111101
11
1010
10
11
11111100
0
1
11111111
11111101
1
10
11
101
101
0
100
111
10
101
11
100
100
110
111
0
11111011
11111010
1
111
11
11111110
11
11111011
1
11111111
11111011
0
0
100
10
11
11111111
11111110
10
1001
10
1001
1001
1010
1110
11000
111
101
11111011
11110100
110
1011
11111111
1
0
0
110
0
0
101
101
11
11111011
11110111
11110111
11111100
0
10
0
110
1110
10
1100
1001
10100
100
11110111
11111001
11111101
1000
110
0
0
0
100
1
0
11111101
0
11111100
11110111
11110111
11110110
11101111
11111000
11110110
11110001
11111001
11111000
11110101
11111011
100
10010
1000
11111001
11111101
11111101
101
101
0
0
11111111
0
0
11111111
11111101
0
111
101
11111100
11110010
11110100
11110100
11110100
11110010
11101101
11100111
11100100
11100101
11111000
1001
11
101
1
0
110
100
101
0
11111000
11111011
11111100
11111011
11111111
1
101
11
11111101
11111001
11111000
11111101
11111101
11110011
11101111
11011010
11011110
11011000
11110010
11111111
11111100
1
100
11111000
11111110
11
11
11111100
10
0
11111101
1
1
11111111
11111111
11
11
11111101
11111000
11111100
11111100
11111010
11111011
11111001
11110011
11100000
11101101
10
11111100
0
100
0
11111011
11111010
11111111
11111110
0
1
101
11
10
11
10
10
0
0
11111110
11111101
11111110
1
1011
11111110
11111000
11101010
11111011
1011
11111110
11111100
10
110
0
11111001
10
11111101
11111011
0
11
10
100
1011
1001
0
11111101
11111011
11111101
11111111
0
11111011
0
10
11111101
11111001
11110100
11111110
0
0
11111101
100
100
11110100
11110110
11110010
11110010
11101110
11110100
11111011
11111110
0
0
11111010
11111111
11111010
0
0
111
1
0
10
0
11110111
11101001
11110100
11
11111101
11111101
11111101
111
11111101
11110010
11110010
11101010
11011101
11010110
11010010
11011010
11100000
11101001
11101110
11111010
11111101
10
10
100
111
101
0
100
11111000
11101111
11110011
100
10
11111100
1010
110
10
0
1
11110110
11110101
11101000
11100011
11100010
11100010
11101111
11110011
11110111
11111011
0
1
11
100
0
11111111
100
11111010
100
11111010
10
0
11111111
100
10
110
101
100
10
1
10
11111101
11111100
11111001
11111010
11111001
11111111
11111010
11111101
100
101
101
0
1
10
10
11111101
101
1
11
101
11111101
11
1000
10
11
111
1
101
11
101
11
1
11111111
11111110
11111010
11111010
0
0
10
1
11111100
11111100
11111011
11110110
111
0
11
1
11111100
110
101
100
10
10
11111110
0
11
101
0
11111111
11111111
11111111
11111110
11111110
11111100
0
1
101
0
11111101
11111111
11111000
1010
0
0
0
1100
1011
110
111
1011
100
11
0
1
100
11
1
0
11111111
0
1
11111111
11111001
0
0
1
11111011
1
110
1000
0
1
1
11111110
1011
1
10
10
11111111
101
1000
100
11
10
10
100
0
11
10
11111101
11111001
0
11
101
0
10
11111110
11111010
11111111
11111111
0
100
11110111
0
1000
111
0
110
111
111
1000
1100
1010
1001
111
101
11111100
11111110
10
11
1000
1101
1011
1111
1
11111111
0
0
1
11111111
10
1001
11111110
11111100
11111011
11111010
11111100
11
11
0
10
0
101
0
11111101
11111101
10
0
10
11
11111010
11111011
11111111
1
11111111
0
11111111
0
0
11111111
0
111
11
11
11111001
11111101
11111010
11110101
11101110
11101110
11111000
11101111
11101101
11110100
11111110
11111110
11111111
11111011
11111001
0
0
0
0
