0
0
0
0
1
0
1
1
1
0
11111111
11111111
0
0
0
0
11111111
0
1
0
0
0
0
0
0
11111111
0
0
0
0
1
0
11111110
11111111
11
11
11111010
11110000
11110011
11101011
11111000
11111000
0
100
10
11111110
11111000
101
11
0
0
0
11111111
0
0
0
0
0
11
11111110
11111101
11110111
11111000
11110110
11100111
10
11
0
11111111
11111110
11111010
11111011
11110100
11110011
11111001
11110110
11111100
1100
101
11111111
11111001
0
0
0
1
0
111
11111110
11111100
11110010
1
1000
11111001
0
11111001
11101101
11110100
0
11110001
11101111
11101101
11110000
11111100
11111111
101
11111110
0
100
0
11
11111011
0
1
0
1000
111
100
11111110
1010
11
1
0
11111111
11111101
11111001
11110111
11111001
11111001
11111100
11111101
11111100
10
11
111
111
101
0
11111100
1000
0
0
1
110
11111111
11
10
1000
100
11111001
11111101
11111010
11111110
11110111
11110110
11111010
11110111
11101111
11110100
11111001
11111111
11111011
11111100
10
10
0
11111110
11111111
11111101
0
1
11110111
0
100
11111111
100
100
11111101
11111011
11111010
11111100
11111001
11111101
11111010
11111011
0
11111110
11111110
11111110
0
10
11111110
0
0
111
0
0
0
11111111
11111010
0
11111111
11110111
100
100
11111000
11111000
11111000
11111010
11111110
11111101
11111111
10
100
11111010
11111010
100
1
11111111
11111111
10
0
11111011
11111100
11111111
11111000
110
11111011
11111101
1000
101
1000
11
11111011
11111010
11111111
0
10
1000
100
10
11111110
11111010
11111101
11111100
0
11111100
11
0
11
0
11
1
1
1100
11111011
11111111
11
101
11111111
0
11110111
11111101
101
10
110
1001
110
0
11111111
11111100
11111011
11111010
11111111
0
0
10
0
0
11
0
10
1011
100
11111101
11111011
11110111
0
11111100
11111100
100
110
11
1000
1000
110
100
11111111
11111011
11111101
11111111
11111111
11111101
11111101
100
11111101
11111001
11111101
110
10
11111101
110
11
100
11111011
11111110
11111111
10
11
0
0
100
111
1010
11
11111111
0
11
11111101
11111101
11110110
0
11111100
11111110
11111000
11
11
0
101
11
100
11
11111011
11111101
1
101
1
11111100
11111111
1
1
1100
1001
1010
1000
111
0
11111110
11
110
101
11
1000
0
101
11111110
0
110
1
0
11111000
11111101
0
11111111
11
11111110
0
11111011
10
1110
1100
1010
111
111
101
1011
101
1001
100
11
100
1011
1010
11110111
0
1110
11111111
11111111
11111001
11111100
11111001
0
11111100
11111010
11111001
11111001
11
1010
1010
101
11
10
101
1001
101
11111111
110
0
0
1111
1001
11111001
11111111
10
11111101
11110101
11111000
11111110
0
100
11110111
11110110
11111011
0
1000
1011
1001
101
10
100
11
111
10
110
1000
101
0
11
11111110
11
0
101
11111111
11110110
11111010
11111110
11111101
11110110
11111000
11111100
11111111
10
101
1011
101
100
0
11111110
11111111
11111111
10
100
0
11111111
11
101
101
0
0
101
11111111
11110101
11110110
11111000
11111100
11110001
11110101
11111101
0
101
111
1011
110
0
11111011
11110101
11111011
11111110
0
111
11111110
11111010
1011
1000
100
1001
11111111
1010
11111011
11110001
11110001
11111001
11110111
11111001
1
0
11111111
0
101
101
11111011
11110100
11110100
11111001
11111111
11111010
11111100
11110111
11110111
11110011
10
11
11111001
10
111
1000
11111101
11111001
11110001
11110101
11111000
11111100
11111011
11111011
11111101
100
1
11111111
11111001
11111000
11110101
11110111
11111011
11110100
11111000
11101111
11110101
11101111
11111100
1
110
0
11111101
10
11111101
11111001
11110011
11111001
11111101
11111101
11111111
11111001
11111111
11111111
11111100
11111101
11111001
11111011
11111101
11111101
11111011
11110111
0
11111010
11110000
0
11111100
10
11111101
1
11111110
11111101
11101100
11111000
11111110
11
0
11111011
11111111
0
11111110
11111111
1
0
0
11111101
11111110
11111011
11111110
11111110
1
11110110
11101100
11111111
11111000
11111000
11111111
10
11
1101
11111011
11
1000
1
11111111
11111101
0
0
11111100
1
10
100
1
11111101
11111111
10
11111001
1
11110110
11101100
11101111
11110110
11111110
11111110
0
0
0
11111000
11111010
0
1010
1
1
11111011
1
11111110
11111100
11
11
0
0
1
11111111
0
11110011
11110101
11110101
11110101
11110100
0
1
1100
0
0
0
0
11111101
1
1101
1101
110
0
11111111
11111111
11111100
11111111
11111101
0
10
11111010
11110111
11111111
11111101
11111001
0
11111101
11110101
11110111
11110011
110
0
0
1
1
11111111
1001
1100
1001
1010
1100
1111
101
1
1011
1
110
11
0
0
11111100
0
1
11111001
11111101
11111011
11111011
11111100
10
0
0
1
0
11111111
11111000
11111101
11111111
1000
1011
10000
10010
1111
100
110
1001
1
11111101
0
100
0
110
1
1011
1010
11110111
0
0
0
0
0
0
0
0
11
101
111
1001
1011
1101
1101
1110
10000
11000
1000
1000
1101
1100
11
11110111
0
10
1000
0
0
0
1
