0
11111111
1
11111111
0
0
0
1
0
0
0
11111111
1
10
1
11111111
1
0
11111111
0
0
0
0
0
0
0
0
0
0
0
0
0
0
11111111
0
100
101
11
1001
0
11111010
11111101
11111111
11111101
11111110
11111000
11110111
11110111
0
11111101
11
1
0
0
0
0
0
0
0
11111111
11111011
11110111
0
0
1100
1111
1001
1100
1010
10010
10000
1000
11111111
11111110
11111101
11111100
11111110
11
11110111
0
1011
1010
0
0
0
0
101
11111111
11111000
0
0
11111011
11
0
10
1
0
0
11111111
11
1001
110
100
10
11111111
10
1001
100
11
1
0
0
0
0
1001
0
11111111
11110111
11111101
11111011
11111110
11111101
11111010
11111110
1
1000
1001
10
1
10
11
101
11
0
0
0
0
11111101
0
11111111
0
1
1010
11111001
11111011
0
1
0
11111100
11111101
11111011
11111101
10
101
111
100
101
111
0
11
1
11
11111110
11111111
11111111
0
11111100
11111110
0
100
11111101
11111111
11110101
1
11111110
0
11111111
11111111
11111110
0
1
0
11111110
0
11111111
11
0
0
1
1
11
1
11111011
10
11111000
11111110
0
111
0
11111010
11111110
11111111
11111110
11
11
1
1
11111111
0
0
11111100
11111110
1
0
10
100
0
11
10
0
11111111
11111100
11111101
11111011
11110111
1010
111
111
111
1
11111111
110
110
10
0
11111101
0
0
100
1000
10
110
11
10
0
11111110
11111100
1
0
11111110
0
11111000
1
1010
1010
1001
110
11
11111111
11111111
0
1
0
11111110
1
0
10
10
100
1
100
101
11
0
10
1
11111111
10
11111001
101
10
10
1010
1101
100
11111111
11
0
11
0
0
11111111
11111101
11111010
11111011
11111101
11111011
11111111
11
10
0
0
10
11111110
11111001
11111010
11111011
111
1
0
1011
10011
101
111
11111100
11111110
1
10
0
0
11111101
11110110
11111000
11111100
11111111
11111010
11111011
11111110
10
1
11
11
11111100
11111000
11111010
11
0
110
10000
1001
110
0
11111011
11111110
100
1001
10
11111111
11111100
11111101
11111011
11111110
11111111
11111011
11111101
11111100
11111110
1000
111
101
111
11111110
11101111
0
11111011
11111100
1010
111
110
0
0
11111100
1
10
0
1
11111110
11111110
10
100
110
0
11111111
0
101
10
1
11111111
10
11
11111110
1000
11110111
11111110
1110
111
1000
1010
110
110
101
11111111
0
1
11111111
11
1001
1001
1010
1000
101
11
110
11111111
1
11111011
11111100
110
10000
1010
11111000
0
0
101
11111111
101
11
11
1010
1001
1010
1011
1
1011
1011
1000
1000
100
0
11111110
10
0
11
11110110
11111110
1
1010
1010
11
0
11111101
11111100
11111100
11111100
11111011
110
1110
10111
10101
10100
10000
1100
1000
111
1010
0
0
11111111
11111101
0
0
11111001
11111100
0
10001
1100
0
11111001
10
11110111
0
11110011
11111000
0
1010
1011
1101
1101
1010
1001
1011
1010
0
11111100
1
1
11111111
11
0
11111100
11111110
1001
10101
1010
110
11111010
10
11111001
11111100
11111010
11111110
11110100
11111011
11111010
11111110
11111111
11111111
11
110
11111111
0
1
111
110
101
1
11111111
11111100
1010
110
1110
1000
11111100
110
1
11110110
1
11111001
11111011
11110110
11110101
11110101
11110101
11110101
11111001
0
11111111
1
101
101
10
101
100
0
100
10
1000
111
1100
11
0
11111011
11111100
11111101
11111011
11111001
11111011
11111001
11111011
11110111
11111000
11110110
11111000
11111001
0
101
1000
100
11
1010
110
0
1
100
1
11
1011
11111000
11111110
101
0
11111101
0
11111101
11111101
11111111
11111110
11111101
11111010
11110101
11110110
11111011
11111111
10
1000
110
111
1001
11
1
0
111
10
10011
11111101
101
11111110
1
110
11111110
110
111
1
11
11111110
11111111
0
11111100
0
11111010
11111110
11111110
11111101
1
100
11111111
0
0
10
11111011
110
1110
11111111
101
0
0
11110111
11110111
11111110
101
1
11111110
11111001
11111100
11111000
11111101
11111110
0
11111111
11111101
0
11
11111011
11111010
11111101
0
1010
1010
1001
110
1001
0
11111111
0
100
11
101
100
110
0
0
0
100
1001
1
11
1001
10
101
0
11111111
101
1
100
1011
110
10
110
1000
0
0
0
11111111
1111
11
100
111
1100
110
1101
1001
1001
1111
1100
10011
101
111
11
100
0
11
1001
101
0
11111111
0
10
0
0
0
1
0
11110111
0
1010
10110
1101
111
1000
10001
10001
10000
101
0
1100
1101
1101
1011
1101
1101
1110
1011
11
0
0
0
1
11111111
11111111
0
10
100
1001
1010
1110
1110
1111
1100
10000
10000
10001
1
11
10000
1101
1101
101
1010
1010
111
0
0
0
1
