11111111
0
1
11111111
11111111
0
0
11111111
0
0
0
0
1
1
11111111
0
0
11111111
0
0
11111111
0
0
0
0
1
0
0
0
0
11111111
0
0
0
11111001
11110101
11111000
11110110
11110010
11110111
11110111
11111001
11111110
11110110
11111010
11111110
11111000
11110110
11110101
11110111
11111001
11111100
0
0
1
0
0
0
11111111
101
11111110
11111110
11111010
11111100
11111011
0
11111111
11110100
11101111
11111111
10
10
11111000
11110010
11100110
11110010
11110110
11111001
0
11110111
11111000
11110110
0
11111111
0
0
11111100
11111000
11111101
11110111
11110110
11110110
11111110
11
10
1011
101
1
11111111
11110100
11111010
11111101
11110111
0
100
1010
11
11111100
11110111
11111100
11111110
0
0
1
11111110
11111100
11111011
11111011
11111011
100
100
1000
11111100
11111011
11111100
11111101
11111100
11111110
11111010
11111101
11111000
11111100
0
1
11111111
110
11111110
1
11111100
0
11111111
0
11111001
0
11111110
1010
0
11111011
110
0
1
101
10
0
11111101
11111011
11110011
11111010
11111000
11110111
11111001
11111000
0
11111100
1
11111010
11111100
10
0
11111101
11
11111010
11
1011
10
11111111
11111111
11111111
11
10
11111101
11111111
11111111
11111001
11111010
11111110
11111111
1
11111111
0
0
0
11111010
11110111
11
11111001
0
0
1
0
11111100
110
11111110
11111111
11111111
11
110
100
11111111
101
0
0
0
11
1001
11
100
11
110
11
11111011
11110101
0
11111100
111
11111111
1000
0
110
100
11111101
101
11
10
11
11
11111111
11111100
11
101
100
1001
1100
110
0
1
101
100
101
11111011
0
11111100
0
110
111
11111100
0
0
11111101
1
0
10
110
10
0
11111111
0
101
101
1110
10010
1001
10
0
1100
110
101
11111110
11110101
11111110
0
11111110
100
1
111
111
101
11111100
11111110
11
0
1
0
11111011
11111000
11
1100
1111
1111
110
100
10
1001
11111111
11111111
100
11111000
11111001
10
10
11
11110100
11111100
0
11111111
11111111
0
101
110
1
11111100
11110100
11110010
11111110
1000
1001
111
11
11
101
1000
11111111
11111011
11111100
11110101
10
1
1001
1010
11111011
11111101
11111010
11111011
11111110
11
1010
100
110
11111100
11110000
11101010
11111010
1
11111111
11111111
10
100
10
1110
0
0
1
11111111
11111011
0
101
110
11110111
0
11111010
11111001
111
100
111
1101
1
11111001
11110001
11110011
11111010
11111011
11111101
11111100
11111100
11111110
0
10
0
11111110
1000
11111101
11111000
1001
110
11111110
11111011
0
0
11111111
1000
101
1101
1100
0
11111011
11110100
11110010
11111001
11111100
1
11111101
0
0
11111110
1
101
100
1000
11110111
11110101
1000
11
11111101
10
1000
11111111
0
110
110
1010
1001
1
11111000
11110000
11110011
11111000
11111100
10
0
11111100
11111101
1
0
110
10
11111001
11110110
0
10
11111101
11111111
11111111
0
0
11111101
10
10
11
11111110
11111100
11111001
11110101
11110110
11111110
11111110
10
11111110
11111100
0
11111111
11111111
11111110
11111100
11110110
11110101
0
0
11111100
1
110
11111111
100
11111101
11111111
11111101
11
0
11111011
11111111
1
1
0
0
0
0
11111001
11111101
11111110
11111111
11111111
0
11111111
101
110
11
11111101
10
11111101
0
0
0
0
11111001
0
11111100
11111111
11111110
0
10
11111110
0
0
11111111
11111110
11111010
0
0
0
11111010
11110111
1001
11111011
11111100
11111100
11111010
11111011
11111111
0
1
0
0
11111011
11111001
11111010
11111111
11111010
11111111
11110111
11111101
0
10
0
11111011
11111000
11111010
11111110
11111011
11111011
11110110
11111011
0
111
1010
11111001
11111101
10
11111011
11111111
0
11111100
11111110
11111101
11111111
0
11111011
11111001
1
10
11111100
11111100
11110110
11111001
11111001
11111010
0
100
11110110
0
11111111
110
110
11111011
11111101
11111101
11111100
11111101
10
11111110
1
11111111
11111111
11111010
11111001
11111110
0
11111110
11111101
11111110
11110111
11111000
11111110
11111001
11111100
10
1
11
0
0
11111111
11111111
11111001
11111010
11111000
11111110
1
0
1
10
1
1
11
11
0
11111110
0
10
11111010
11111011
1
11111001
11111111
0
101
100
1
11111111
11110110
11110110
11
0
1
0
11111110
0
0
10
0
100
101
11111110
0
100
11
100
11
10
11111001
11110011
11111100
11111110
0
0
0
0
11111100
11110111
1110
1011
10
1
10
101
1
10
10
0
11111011
0
0
1000
111
1101
1110
1000
11111111
100
10
11111111
11111100
1
0
0
11111110
1101
1110
10010
1000
1100
1100
1001
1001
111
11111101
1
1
110
1000
1010
1101
101
10
1100
1100
1101
1010
1
11111100
0
0
0
0
10
1100
100
10000
10111
10010
100000
1000
1001
1111
1011
10001
1110
110
0
11111111
11111110
11111111
11111111
0
100
1
1
0
0
1
11111111
0
0
0
0
0
0
11111111
11111100
11111111
101
11
101
111
1101
101
101
11
1010
1000
11111111
11111101
11111011
0
11111111
0
0
