0
0
0
11111111
0
0
0
0
0
0
0
11111111
1
1
0
0
0
0
0
11111111
11111111
0
11111111
0
0
11111111
11111111
0
0
0
0
0
110
100
1010
1110
1100
10111
11000
11111
10110
1010
11110101
11111101
11
10010
10111
10010
10011
1100
1001
111
11111111
0
0
0
0
0
111
110
1001
111
10010
10001
11101
11110
1110
11
11111001
11111111
10
11
1
11111110
1
11010
10011
11010
10011
10101
1001
0
11111111
0
0
0
0
100
101
10010
1101
110
1010
10000
1010
101
100
100
10
1
100
1
11111010
11111001
0
11
110
101
1101
10
11
1
1
0
100
1
110
10
0
1100
110
1110
10001
1100
1101
10
11
1
101
111
111
1000
1011
11
100
10
11111011
11111011
11110111
10
11111111
0
110
11111111
110
11111111
101
101
1100
1101
10011
1101
100
111
100
11
100
1010
111
0
0
11111101
11111101
11111111
10
11111101
11111000
11
0
1
1010
1111
0
1
1110
1010
1000
1101
1111
1001
101
101
0
0
11111111
10
11111100
11111100
0
11111101
0
11111011
11111011
11111011
11110010
11111001
0
111
1010
1110
0
0
1
0
11111111
110
1100
1000
1
11111101
11111110
0
11111111
11111111
11111110
11111111
100
11
10
101
100
11111100
11111010
11111101
1000
11111111
101
1101
110
11111110
11111101
11111110
1
10
1100
1101
101
11111111
0
0
0
11111111
11
0
0
11
1
10
11111110
11111100
11111001
11110011
0
1000
0
1001
1010
11111101
11111110
0
1
111
1001
1010
100
10
111
101
1
11111110
0
0
11111111
11111101
0
1
11111101
11111001
11111100
1000
1
1
111
11
11111110
11111110
11
0
11111111
1000
111
1010
101
111
100
110
1000
101
10
11111111
11111111
10
11111001
11111110
11110110
1
0
1
11
1001
11
1
10
11111000
1
11
11111101
1
10
101
1010
1110
1011
1000
101
11
11111111
11111110
0
0
11111100
0
11110011
11111001
11110111
0
11
1001
111
11111111
11111111
11110111
11111111
11111110
11111101
11111110
11111110
110
1010
10000
1011
1001
110
10
0
11111011
11111010
11111110
1
110
11111110
110
11111101
111
11111110
110
111
11111111
0
11111110
11111110
11111010
11110111
11111000
11111100
11111110
10
100
100
111
111
0
11111111
11111101
11110111
101
101
10010
10000
1010
0
100
11111001
11111101
1101
11111010
11111010
11111101
11111000
11111100
11110101
11111001
11111010
11111001
11111001
11111101
11111110
11
1
0
11
11111100
11111110
100
1100
1000
1101
1010
11111001
101
11111101
10
10
11111000
11111110
11110101
11111001
11111101
11111010
11110111
11111011
11111000
11111001
11111100
11111011
0
11111100
11111111
11
1
1000
111
1000
1010
100
111
11111000
11111110
1
10
11111101
11110110
11111011
11110111
11111111
0
0
11111001
11111010
11111000
11111000
11110101
11110100
11111011
11111111
11
110
100
0
11111110
11111101
1
0
0
11111111
11111000
0
11111011
11111111
11110111
0
0
11111111
11111100
11111111
11111110
11111100
11111000
11111000
11110110
11110111
11111100
0
1001
110
0
11111110
11111110
11111011
11111111
11111100
11
1
11110111
0
11111101
10
11111001
11111110
11111100
11111101
0
110
100
0
1
11111110
11110111
11110111
11111101
11
1011
111
100
11111111
11111110
11111110
11111101
11111110
0
1000
11111001
11111100
1001
100
101
111
11111100
100
101
0
11
110
111
100
11111010
11111011
11111010
1
100
0
10
101
10
1
11111011
11110011
11111110
11111011
11110110
0
0
1
1010
1000
1
0
11
11111111
0
110
100
101
1
11111111
11111100
11111101
0
10
111
100
111
0
11111001
11110010
11111011
0
11111001
11111111
111
11111011
1010
1001
1
11111101
11111111
11111111
11111111
10
10
1
0
1
11
11
1
11
0
1000
0
11111111
11111010
11111001
11111010
1011
11
11111101
11111110
0
1
1
10
11111011
11111110
11111101
1
111
0
0
0
1
1000
101
0
11111011
0
11111110
0
11111011
11110011
11110010
11111010
11111110
11
0
0
11111100
11111101
0
101
1100
111
11111101
0
1
101
0
0
0
11111110
11111100
0
0
0
11111011
11111000
11111000
11111000
1
11111000
11110110
1
0
11111111
11111100
11111111
100
1100
11001
100
101
10
0
11111101
11111110
11111101
11111100
11110101
11111110
101
11111100
11110101
11110111
11111100
11111001
11111111
100
100
1000
0
11111111
0
11111100
1010
1000
1011
10110
10110
10110
10010
1111
10010
1100
100
11
11111010
11111010
11111000
11110111
11110101
11111001
11110011
11111010
11111011
11111101
1000
111
1
0
11111111
11111111
11111101
11110111
111
111
0
1
1011
1001
100
11111111
10
101
110
1010
0
10
11111111
0
11111001
101
1001
11111010
0
1
1
0
0
0
11111111
10
11
11111101
0
0
11111111
0
11111111
0
11
11111011
0
10010
10010
1000
11111000
11111011
0
11111110
100
0
0
0
0
