0
0
0
1
0
11111111
1
0
0
0
0
0
100
1
11111110
0
11111111
1
1
0
0
0
0
0
0
1
0
0
11111111
11111111
0
0
101
100
11111111
0
11111111
1001
111
1100
1010
1100
110
11
101
1101
1001
110
11111011
11111111
11111111
11111110
0
0
11111111
0
0
0
11111111
1000
1000
101
1001
1100
11111010
11110001
11110001
11111010
0
1001
1011
110
110
110
11
1011
1011
111
1010
11111110
11111000
11110110
0
0
0
11111111
11111011
110
1001
10
11110111
11111110
11110111
11110000
11110100
11111111
100
0
110
101
110
1100
101
100
11111100
100
1001
1010
1000
11
11111111
0
0
10
11111010
100
11111001
11111000
11101110
11111000
11111000
11111010
11111011
11111111
11111101
11110111
11111001
10
111
1001
110
1010
10000
1011
100
1011
110
0
11111001
11111010
0
11111111
11111010
10
11110001
10
100
11111111
1
10
10
101
0
0
100
10
0
110
11
101
1001
1010
1010
10
100
11111100
0
11111000
0
11111110
1100
1010
11111111
1001
10
101
1
11111111
11
1000
1
10
1000
110
110
111
101
11111111
11111011
11111111
11111111
11111000
11111011
1
111
11111010
0
1
1000
1011
11111111
11111111
1
0
11111101
11111101
10
10
11
111
101
1010
1011
110
0
11111100
11111000
11111001
11110100
11110010
11110110
111
101
11111010
11
11111111
1010
1000
100
11111110
1
11111011
11111111
0
0
1
1
100
1001
1100
1110
10
11111011
11111000
11111011
11111010
11110100
11110011
11110101
11111010
0
11111100
10
1011
0
1001
11111111
11111110
11
110
0
11111111
10
0
100
1011
1000
1001
10
11111110
11110101
11110101
11111010
11111010
11111101
11110010
11111100
11101111
11110011
110
10
1110
110
100
11111101
0
11111110
0
11111101
0
0
100
1010
1010
101
11
0
11111001
11111000
11111010
11111010
1
11111100
11110011
11111110
11110101
11110110
0
11
100
1001
0
11111110
11111100
11111111
0
11111110
1
100
100
110
101
11111110
11111110
11111111
11111111
0
11111110
11111111
0
11111011
10
11
11110100
11111010
11
100
111
1000
10
110
101
10
101
1
1001
110
0
11111010
11111001
11111011
11111100
0
1
1
11111111
0
11110111
0
1010
10
11110010
11110110
11111101
0
111
110
11
1111
1000
101
1011
1
110
101
11111101
11111100
11111001
11111011
0
110
10
1
11111110
11111101
11111110
11111011
1
11
11110100
11101110
11111000
100
110
1011
1010
1001
1
11
10
11
110
11
11111110
11111010
11111010
11111000
11111110
11
100
1
11111110
100
110
11111111
0
1
11111101
11101000
11110100
101
10
10
101
11111111
1
101
101
101
10
11
1
11111001
11110100
11110101
11111110
11111111
100
10
0
10
0
0
100
11111101
11111011
11110001
11110011
1
11111111
10
11111100
11111100
10
100
101
110
1001
1
11111111
11110110
11110001
11110001
11111000
11111001
11111101
11111110
1
11
11111110
10
11111111
11110101
11110111
11101101
11111001
0
1
10
10
11110110
100
11111011
1
100
100
10
11111101
11111010
11110101
11110010
11111010
11111101
10
0
101
0
11111111
0
11111110
11111100
11111010
11101111
11111100
1011
100
110
101
11111001
11110100
11111000
11111100
11111110
1
11
11111111
11110110
11110101
11111100
0
10
110
11
1010
11
110
0
11111110
11110111
11111110
11111010
11101100
0
11111110
101
1110
11111111
11111000
0
0
100
11111101
11111011
11111011
11111100
11111000
11111010
11111011
10
11
110
111
101
0
0
11
10
101
11110110
11110010
0
100
100
1
1
11111011
11111001
11111110
0
11111010
11111000
11110101
11111100
11111110
11111110
11111111
1
11
0
100
0
11111111
0
11
101
1000
11111001
101
0
11111001
11111011
11111100
11111111
11111100
11111100
11111010
0
11111011
11111011
11111010
0
11111110
11111111
11
1000
10
11
0
10
10
1
11111001
11111111
101
1001
0
0
11111111
11110010
11111100
11110010
11110110
11110011
11110101
11111000
11111011
11111100
11111101
0
0
10
100
101
11
100
1
11111111
11111010
0
11111101
11111010
111
110
11111111
0
0
11110111
11110100
11101110
11110011
11111100
11111010
11111010
11111001
11
11111111
0
11111111
11111111
0
11111101
11111111
0
11111101
11110111
11111010
11110110
11111000
11111101
1
11
0
11111111
0
100
11111001
0
110
1011
1001
111
110
1011
101
1000
110
11111011
11111110
11111100
11
11111100
11110110
11110110
11110101
11110011
11
111
11110100
11111001
0
1
0
101
11111101
101
1010
1000
10000
10001
1111
10000
10000
1010
1010
101
11111111
11
11111111
10
10
0
11
1001
1001
1011
10
11111001
1
0
11111111
11111111
11
10000
101
1001
110
11111110
100
1101
10011
11001
100000
100110
100000
10011
0
110
1111
1101
10101
1011
100
10
0
0
0
0
0
0
0
11111110
11111111
111
0
0
11111110
110
111
111
110
1101
101
0
0
1
1010
1010
111
11
11110111
0
0
0
0
