0
0
0
0
11111111
1
0
0
0
1
0
0
11111101
11111111
0
10
1
0
11111111
11111111
0
1
1
0
1
0
0
0
0
0
0
11111111
10
1
101
110
11
0
1000
1000
11
10
11111000
0
1000
1001
100
100
111
100
10
0
0
0
0
0
11111111
0
110
111
1000
11111101
10
101
1010
1010
1
100
1001
11111111
1
110
1100
1011
1011
111
0
111
11111100
11111110
1011
1100
0
1
0
0
11
101
1
1011
11
11111110
1010
1001
1
1
1111
1111
111
110
1111
111
0
11111011
11111101
10
0
1000
1010
101
11111111
1
0
0
10
11111111
11111110
1
11111100
0
11
1001
100
11111111
1
110
1001
111
1100
1100
110
11111100
11111110
100
10
11111110
11111000
1
111
11111111
0
0
100
11111010
11
11111011
10
1000
0
11111110
101
1000
110
111
101
111
1001
1100
111
100
11111110
11111111
11111111
11111111
0
101
11111110
11111101
0
0
100
101
11111000
101
1000
110
0
0
1010
1101
100
1010
110
101
1000
110
0
0
11
1
1
11111100
11
111
11111011
11111111
0
110
0
11111111
11111110
0
1
1
0
11
1000
110
101
101
11
101
11111110
11111010
11111110
0
11111101
11111101
11111101
11111101
100
1
11111011
11111101
1000
101
11111100
10
10
11111101
1
110
0
100
1011
101
11
111
11
0
11111101
11111011
11111100
11111111
11111101
11110100
11111101
10
11111110
11111110
11111111
1
10
110
10
1
110
0
101
1
11111111
100
11
11
1010
101
101
0
11111010
11111101
11111100
1
1
0
1
11
10
100
10
10
1
0
1000
11111101
11111011
101
100
100
10
101
110
110
101
1011
1010
11111101
11111100
0
100
100
101
1001
0
1000
101
11110111
0
11111010
0
11
1
10
11
101
101
1000
110
100
11
111
11
10000
10011
110
1
1
100
100
111
111
1100
1110
11
11111001
10
0
0
10
11111111
1
0
0
11111111
111
1000
110
11
110
101
111
110
0
0
11
100
11
0
10
1
111
110
1
110
1001
11111100
10
11111111
11
10
11111110
0
0
11
101
11111111
0
11111110
11111111
0
0
0
11111111
11111111
11111110
11111111
11
10
0
10
11
101
1000
11111000
11111101
1011
11111010
11111011
11111010
11111110
11111111
0
0
1
11111111
11111001
11111101
0
11111110
11111001
11111011
1
11111100
0
10
11111110
0
11111100
11111000
11
1001
11111011
11111100
11111100
11111011
11110110
11111000
11110111
11111010
11111011
11111111
11
1
10
101
10
0
11111011
11111111
110
100
101
11
11
111
11111111
11111111
11111101
1101
0
11111111
1
11111011
11111100
11110101
11110110
11110101
11111000
11111111
0
11111101
0
100
111
101
1
11111011
11111110
1
11111101
11111111
0
101
11111111
0
100
1011
0
11110110
11111011
11111011
0
11111101
11111000
11110001
11110010
11110011
11101110
11110100
11111000
11111011
11
0
1
0
11111110
11111110
0
11
11
11111110
11111110
1011
101
1010
100
11111001
11111110
11111000
11111111
11111010
11110111
11110110
11110011
11110001
11110001
11110111
11111001
11111011
11111110
11111111
11111110
11
11111111
11111101
1
11111111
0
11111011
11111101
10
100
110
11111011
110
11111111
11111101
100
11110101
0
11111101
11110110
11111010
11111101
11111100
11111111
11111010
11111010
11111010
11111110
110
11111011
0
11111110
11111010
11
0
11111111
11
1100
100
0
10
1
110
1111
0
0
1011
111
1001
1110
101
101
11111111
1
1
11111001
11111011
11111111
0
11111010
0
11
11111110
11111101
11111010
1110
11111001
11111110
11
11111111
1001
11000
0
1100
1111
1110
10000
10100
1010
1001
1001
11
1
11111101
11111011
11111110
11111101
11111101
11111001
11111111
11111101
11111011
11111000
1010
0
11111110
11111110
11111011
1
1000
11
0
1001
101
100
111
11
1010
1011
1000
1001
1
11111110
11111001
11111001
11111110
0
11111011
11110111
11110110
11111001
11111011
10
0
0
11111000
11111001
11111100
100
11
11111111
11111111
1
11111100
11
111
1010
1000
0
100
11111111
11111111
11111111
11111100
11111000
11111000
11111101
11111011
11110110
11110101
0
0
1
0
11111110
11111111
1
0
11111001
11111111
10
100
0
11
1
11
11111111
111
0
11111010
11111010
11111010
11110111
11111010
11110111
11111001
1
101
0
0
0
11111011
1000
111
10
0
1
0
10
1010
110
1010
11
110
100
1
100
0
11111011
11111101
11110011
11110110
11111100
11110100
11111111
101
0
11111111
0
0
11111100
11110000
1
11110101
11110110
11111101
1001
1011
10
11110111
0
100
1
1
11111100
11
11111111
0
11111110
100
100
11111001
10
1
1
0
0
11111111
1
10
11
11111100
11111111
0
0
11
1
10
110
0
11111111
110
1010
1000
11111011
11110111
0
0
111
0
0
0
0
