0
0
1
1
1
0
0
0
0
11111111
0
0
11111101
11111110
1
1
0
0
1
0
0
0
11111111
0
0
0
0
0
1
0
0
11111111
0
11111111
101
1
11111101
11111000
11111101
11110101
11111000
11111000
11110111
11
111
0
0
11111100
101
1
110
110
11111111
0
0
0
0
0
10
100
111
0
0
11111010
11111010
11111010
11110010
0
1100
1001
11111110
11111111
110
1
11111100
11111000
11111111
11111100
11110101
11111100
111
1000
0
1
1
0
1000
100
11111011
11
111
11
1100
0
11111101
1000
1100
1110
1010
1010
1100
10
10
11111010
11111100
11111001
11111000
11110110
11110101
11111100
0
0
1
11111110
1010
0
11111110
11111111
101
1
10
11111101
11111101
11111100
0
1
101
101
110
0
0
0
11111101
11111101
1
11110010
11110101
11111011
1001
0
0
0
1000
11111100
11111100
11111110
11111001
11111110
11111101
11111111
11111110
11111010
11111001
11111100
0
100
11
11111101
0
11
0
11
11111101
10
11111101
11111111
111
11111111
0
100
11111110
11110111
11111000
0
11111110
11111001
11111000
0
10
11111010
11111010
11111110
11
100
10
1
0
11111111
11111001
11111110
0
0
11111101
11
1
100
0
100
11111100
11111000
1
100
11111111
11111011
11111110
0
11111011
11111010
11111110
0
11
101
10
0
11111111
1
11111111
0
0
0
100
0
1
0
101
1010
11110110
11110110
0
0
0
0
11111100
11111100
0
0
100
110
11
0
0
101
0
1
100
100
101
100
11111111
10
11
11111101
0
1
1
11110111
11
11111100
1
11111111
10
0
11
101
11
11110111
11110100
11111011
101
1000
1000
111
100
1
11111111
110
0
0
110
11111111
0
1
11110111
11111001
10
11111111
100
110
1011
110
1
11111011
11101101
11100001
11101100
11111000
11
1010
1000
11
100
11111111
1
1
11111101
111
1001
111
0
10
11111101
11111010
0
1
0
11111101
11111011
11101111
11101010
11100110
11100010
11101000
11111010
11
101
100
11
1
11111111
11111100
11111100
11111010
11
110
100
1
11111111
11111100
1
11110101
11110010
11101111
11100111
11100010
11011011
11101010
11101101
11101011
11110011
11111110
111
101
0
11111100
11111011
11111100
11111010
11111110
11110111
11111011
101
1000
1000
0
11111100
11111001
11
11110110
11101010
11101110
11100100
11100000
11110011
11111001
11110101
11111100
10
1010
111
0
11111111
11111101
11111100
11111011
11111011
1
11111110
100
11
101
1010
1000
11111011
11111010
1
11110111
11111110
11111111
0
0
0
11
100
1000
111
111
110
11
11111110
11111110
10
0
11111100
11111101
11111011
11111101
0
0
1011
1001
11111001
11111110
101
11111001
11
1101
110
0
1010
10
0
10
0
100
11111111
11111101
11111100
0
1001
10
11111110
11111111
0
0
1
101
1000
1010
1
11
1001
11
1001
1100
101
111
110
101
100
11
0
11
0
11111100
1
110
110
10
11111100
11111110
11
1
0
101
1100
1100
1
11111101
1000
1
1010
101
101
0
111
1000
10
10
10
1
11111111
11111100
0
1
1
0
11111101
11111110
11111011
11111001
11111111
10
100
1111
0
11111101
1000
1000
111
0
1
1
110
100
0
11111010
0
0
11111110
11111100
11111101
100
10
11111111
11111111
11111100
11111100
11111110
101
1001
11111100
10001
11111101
11111110
11111000
11
110
10
1
11
11111110
0
11111011
11111001
11111111
11
11111111
0
1
10
11111101
11111110
0
11111100
0
101
11
110
1011
1010
0
11111100
11111011
100
10
11111111
110
1
1
0
11111110
0
0
0
11111110
11111011
11111111
11111011
11111100
0
11111110
11111010
11111110
111
10
1
1000
11111001
11111101
10
1101
1
11111111
0
100
10
11111111
11111110
11111111
11111110
0
0
0
11111110
11111011
11111011
11111110
0
11111101
11111010
11111111
11
10
11
111
100
11111101
0
10100
11111101
101
110
11
10
1
11111100
1
11111111
11111101
11111110
11111111
11111110
0
11111111
11111110
11111001
11111000
11111111
0
11111111
11111100
11111001
11111011
101
0
1
1100
11111111
1
1
11111101
100
1
11111111
11111101
11111100
11111111
10
11111111
11111110
0
11111110
0
11111111
11111100
11111101
0
0
11111001
11111011
11111110
0
0
0
0
1000
0
11111101
11111101
11111100
10
11111101
11111111
0
10
11111101
11111111
11111001
0
11
11
1
11111111
11111010
11111100
11111101
11111110
1000
1001
0
0
0
11111011
11111011
11111110
11111000
11111010
10
0
11111101
11111001
11111011
11111101
11110110
11111010
11111100
11111101
0
100
11111010
11111010
11111010
11110100
11101111
11110010
100
1000
0
0
11111111
11111111
11111110
11110010
11110100
11110100
11111100
11111110
11111001
11111110
11110111
11101111
11110111
11111101
11111000
0
0
0
11110100
11111000
11101110
11110101
11111011
11111100
0
0
0
1
0
0
11111111
0
11111111
11111011
11111101
11111010
11111000
1001
11
11111000
11101100
11111011
0
11110101
1001
101
11110110
11110101
11110011
11111001
100
1
0
0
0
