11111111
0
0
0
0
0
0
0
0
0
0
1
101
11
11111101
0
0
0
11111111
11111111
0
0
1
0
0
0
0
0
0
11111111
11111111
0
101
101
1000
10001
1111
100000
11000
10011
1110
110
11111100
11111111
0
1101
10101
10010
10110
10001
1100
1011
0
1
0
0
0
0
110
101
1010
1011
11
1101
11111
1011
1111
10101
10011
10011
10100
11100
11100
10000
10010
100101
101001
11100
10100
1110
1000
10
11111111
0
0
0
11111111
111
101
10011
1110
10101
100001
10000
10110
10110
11111
11100
11000
10100
10100
1000
111
10001
10110
1110
1000
111
1001
11111110
1010
0
11111111
1
11111011
11111100
1
1
101
1011
110
11111110
101
100
1
0
11111111
0
0
11111111
1
11111111
11111110
11111111
100
1
10
11111111
11111101
100
0
1
1011
10
10
1000
1010
10
10
1
0
11111001
11111011
11111110
0
0
10
0
1
0
11111100
11111101
11111100
10
11111010
11111101
11111110
1
0
10
101
10001
0
101
111
10
11
11
11111110
11111010
11111101
11111111
10
11
10
0
11
0
11111110
0
0
11111010
1
10
11111100
11111011
0
1011
11111110
1001
100
10
101
110
101
0
0
10
10
11
1011
101
11
101
11
0
0
11111111
11111110
0
0
11111100
11111011
11111101
111
111
0
101
11111100
11111011
0
11111100
1
0
11
1
110
1000
1100
101
101
100
11111111
11111110
11111101
11111111
11111101
0
11111000
11111011
11111110
11111111
11111111
0
1000
111
1011
11111111
1
0
110
10
11111110
1
11
1000
1011
101
0
11111101
11111100
0
11111010
11111101
11111111
11111110
0
11
11111011
11111010
11111101
100
11111111
1011
111
101
101
1
1
11111101
11111011
11111100
11111100
1
11111111
11111101
11111011
11111111
11111100
11111110
11111110
10
11111110
11111000
111
10
101
100
11111111
1001
0
1010
1
11111101
111
11111110
11111011
11111011
11111011
11111100
11111001
11111000
11110110
11111000
11111100
11111101
11111111
1
11111111
11
11111001
11111010
11111000
11111100
11111100
0
0
10
11111001
11
11111101
0
101
0
0
1
0
11111011
11110111
11110100
11110110
11110111
11111001
11111010
11111111
11111110
11111111
11111111
11111011
11111011
11
11111111
10
11111001
11
1
0
0
11110011
11111010
11111100
11111010
11111101
11111111
11111111
11111000
11110011
11110110
11111000
11110101
11110110
11111011
11111101
11111100
11111011
111
0
110
1000
11110101
11111000
11111110
11111010
0
11
11111001
11110000
11110011
11110101
11111100
0
0
11111110
11111010
11111100
11111010
11111010
11111011
11111010
11111000
11111110
11111011
11111011
100
11111110
1
10
11111010
11111111
10
11110111
0
1100
11110110
11111101
11111110
11111111
11111111
0
111
0
0
11111111
0
11111100
11111100
11111110
11111010
11111100
0
101
100
11111110
100
0
0
10
11111101
11111110
1001
1000
11111111
11111011
1
11111111
11111111
10
101
10
101
11111110
0
11111100
11111010
11110101
11110011
11111100
11111111
0
11111110
100
101
100
110
11111011
11111110
1
110
101
11111100
0
100
11111110
0
0
11111110
0
11
11111110
11111101
11111001
11110100
11110011
11111011
11111101
1
11111011
11111011
11
1
11111100
11111111
11111000
11111101
11110111
1100
0
101
1000
100
11111111
11111110
11111011
11111001
11111110
11111101
11111110
11111010
11111001
11111101
1
100
100
10
11111111
1
10
0
11111100
0
11110111
110
101
1
1
1100
1010
10
0
11111101
11111011
11111111
11
110
0
110
101
101
100
1100
110
101
11
11
11111101
10
0
1
0
100
0
11111101
11111111
1111
1100
11111111
111
111
101
1010
100
1001
1110
1100
1100
111
101
1000
101
0
111
1
1
1001
1
111
100
11111001
11111111
111
11111101
1010
111
10
11
1000
110
110
110
1011
1011
1001
111
1000
11
1000
1000
100
11
11111110
11111111
1001
111
1101
1101
110
0
11111110
10000
11111101
0
11
1
10
11
11
1
10
11
100
101
1001
111
111
111
1000
0
100
11111100
1010
100
1000
1101
101
0
0
1001
101
0
11
11
0
11111101
1
1
110
11
1
1
11
10
101
110
100
1
11111010
11110110
1000
101
1100
111
1
0
0
100
1101
1011
11111111
100
0
0
0
11
111
111
101
111
0
111
1101
1000
0
0
11111101
11111001
0
1
1000
111
0
0
0
11111001
11110100
0
0
110
1011
110
1011
11
101
1100
1000
11
1001
1101
1100
10000
1010
1000
1
111
111
1
10
1001
0
0
0
0
11111101
11110000
11110101
11101001
11111110
10
11111100
11111111
0
1001
111
1000
1111
1101
1011
1010
1000
11111101
11111100
10
0
101
11111111
0
0
0
11111111
1
0
10
10
11111010
11111100
11111000
1
0
10
100
10
11111001
11111110
11111000
0
11111110
11110111
11111001
11111000
11111100
100
1
0
0
0
