11111111
0
0
11111111
0
1
0
0
0
1
11111111
0
0
0
0
0
0
1
0
0
11111111
1
0
0
11111111
0
0
1
0
0
11111111
1
11111101
11111101
11111111
11111110
11111101
11110110
11101101
11110100
11111001
11111001
110
11111111
11111100
11111001
11110110
11110110
11110100
11111010
11111011
11111101
0
0
0
1
0
0
0
11111010
11111000
11111101
11110101
11101111
11101101
11111110
101
101
11
11111111
1
100
101
1000
100
11111100
11111100
11110110
0
1
11111110
1
11111111
0
11111111
1
11
11111011
11111110
11111010
11111000
111
1011
10011
10010
10011
1110
1010
10
1101
1000
11111101
11111010
11111101
1
11110100
11111110
11
1
11111011
11111011
0
0
11111110
1
11111111
11110111
10
1001
10001
10111
1110
10001
10000
10110
10111
11001
11001
10001
111
100
1101
1110
0
11111111
1011
1000
0
11111001
11111101
11111111
0
100
100
0
11110110
11111100
11111100
11110111
11111111
10
1001
1000
1001
1110
1111
10000
1001
10100
10100
10001
1101
111
1100
111
1101
1011
11111111
0
0
0
11111000
11111111
11110011
11111001
11111001
11111101
11111111
11111111
1
11
0
1000
1011
101
11111110
110
110
1000
11111011
1
11
1000
10011
111
1000
11111111
11111100
11110111
11110110
11111101
11111010
11111101
11111111
11111101
0
11111111
1
11111111
11111101
1001
100
11111100
11111001
11111110
11111101
10
10
101
0
1101
1011
10001
111
11111000
11111110
11111101
11111000
11111011
11111100
11111011
11111010
11111011
11111101
11111110
11111011
11111011
1
0
11111101
11111010
11111011
11111100
11111110
0
11
1010
11
100
111
1110
111
11111101
11110111
1
11110101
11111111
11111111
11111011
11111111
1
11111110
11111001
11110101
11111000
0
11111011
11111110
11111100
11111000
11111101
0
0
0
11111100
100
11111111
110
1101
11111001
11111100
11111010
11110101
11111010
1
11111001
11111010
11111100
0
0
11111110
11111000
11111101
11111101
0
11111001
11110110
11111110
0
0
1
11111110
10
1
111
1
1111
11111111
11111100
11111010
11111100
11111010
110
110
0
11111010
10
11
11111100
11111110
11111110
11111011
11110110
11101111
11110100
11111110
0
0
0
11
101
11111100
1000
1110
1100
11111011
11111100
11101111
11110111
11111010
111
1011
111
0
100
1
11111111
10
0
0
11111001
11110011
11110110
0
11111111
10
110
11111111
10
10
1
1110
1
11111000
100
11110110
11111000
11111011
1
100
101
1
110
101
11
1001
1011
1100
1
11111101
11111011
1
0
0
100
11111110
101
11111011
11110111
100
1
101
11
11111011
11111000
11111101
0
11111101
0
0
111
0
100
1010
1101
1111
1000
1
0
11
11111111
10
1
0
10
11111011
11111010
110
1000
11
0
1
110
11111100
11111100
11110111
11111001
0
10
101
0
11
1110
1110
101
11111100
1
0
1
101
0
0
11111111
0
100
10000
1110
111
11111001
11
110
1000
11
100
10
11111101
11111110
101
11
1000
1100
1100
11
11111100
11110111
11111100
0
11
11111110
11111111
0
0
1000
11010
10011
11111111
0
11
11111010
1010
1001
101
110
110
0
11
100
100
1000
10
11111100
11111010
11111110
11111101
11111011
0
11111010
11110110
11111110
0
0
0
11111111
11111011
11111011
10
11110111
101
110
11
100
110
11
100
101
111
100
1
11111100
10
11111110
11111110
11111101
11111010
11111111
11111100
0
11
10
11111110
11110111
110
110
11110110
11111010
10
11111011
111
111
111
110
111
1101
101
1
10
0
101
0
10
100
0
11111111
0
11
111
11111111
0
1011
110
0
11111110
11111010
1
11111111
111
1101
11111111
110
101
1001
11
11111111
0
10
1010
1001
1101
10000
110
1011
1000
1100
1000
100
11111000
1100
11
11
0
11110101
1
11111010
11111101
111
1000
1
1000
110
101
0
111
1001
1011
111
1001
1010
1011
1011
100
1010
10100
11111111
11111110
11111010
11111110
11
1
11111101
11
11111101
11111110
1
0
11111111
11111110
11111111
10
100
110
10
100
1
11
1010
1110
10010
10100
10001
10111
1010
0
11111101
11111110
0
1
111
101
0
11111111
11111111
10
11111110
11111101
11111110
10
1001
100
10
110
100
1000
1111
10001
10100
10010
10100
10011
11
0
1010
0
0
1
11111010
11110011
11110010
11111000
11110111
11
0
1
11111101
101
100
0
0
11
11
1
1100
1100
1000
1010
10001
1101
1000
11
0
0
0
0
100
11110001
11111100
11111010
1
11111111
1
1
11
11111110
0
0
11111001
0
0
101
1
1010
1001
1100
1011
110
1000
11111100
0
0
0
0
0
101
1000
11110111
11110110
11111101
11111101
11111100
11
11
100
11111101
11111010
10
110
110
11111110
10
0
10
11111101
11111000
111
11111101
0
0
0
0
0
0
11111101
11111010
1
11111000
11111000
11111000
11111000
11110111
11111001
11110010
11101110
11111010
11110000
11101010
11110110
11111011
11111111
11111100
11111111
11111010
0
0
0
0
