0
0
0
11111111
0
0
0
0
11111111
0
0
0
11111100
11111101
11111111
0
0
1
0
11111111
0
0
0
0
0
0
11111111
0
0
0
0
0
11111110
0
1
11
11111001
11110100
11110101
11110100
11110111
11110001
11111111
101
1
11111101
11111111
11
11
11111111
0
0
0
0
11111111
0
0
0
100
11111010
11111001
11110101
11110011
11100111
11100000
11111101
11111001
11110110
11101110
11110110
11111010
11111111
11111001
11110001
11111000
11110001
11110010
11110100
11110101
11111010
11
1000
11111111
0
0
0
1001
1
11111011
11111110
10
1010
1
11111011
11111011
11110111
11111011
0
11111001
11111001
11111010
11110101
11111001
11110101
0
11111010
11111010
11111010
11111011
0
11111110
0
0
0
1000
100
100
11111110
101
1000
1000
1
10
100
11
100
110
111
101
1
0
0
1
11111111
11111011
11110101
11111011
11111001
11
11111101
0
0
1001
0
1000
111
101
11111111
1
11111011
11110111
11111001
11111011
0
11111111
1
11111110
11111100
11111111
11111111
10
11111111
11
1
1
0
11111101
11111101
0
11
11111000
11111001
10
110
0
11111111
11
11111110
11111110
0
0
1
11111101
11111011
11111011
0
11111111
11111111
11111111
11111110
11111011
11111110
1000
111
11110111
0
0
100
11111000
11111101
101
10
1
11111111
11111110
0
0
11111110
100
0
11111110
11111101
0
11111110
11111110
11111110
11111100
11111101
11111000
10
10
111
11111010
0
11111000
11
11111101
11111101
0
11110110
0
11111111
0
0
0
11111110
11111110
1
0
0
0
10
11
1
0
0
110
101
11
11
11111000
0
1
10
1
11111110
11111110
0
1000
100
101
1
0
11
0
0
1000
1010
110
110
101
101
100
101
1
11
101
1011
10000
11111010
0
110
100
11111000
11111100
11111111
101
1011
10
11
1010
1001
1011
1100
1111
1100
11
11111111
100
111
100
100
11
111
100
10
1010
11111110
0
11111100
11111111
111
111
1
11
1000
1010
1010
1000
1110
1110
1110
10000
1100
110
11
100
11111101
1
0
1
10
1010
1001
1101
1
0
11111100
0
110
11
1
10
1001
111
11
100
101
1011
1101
1110
1100
1000
1001
101
10
11111110
0
11111001
11111111
11111100
0
11
110
1
11111010
0
100
11111011
0
100
10
101
101
11111010
10
101
110
100
100
1000
1000
100
11
0
11111010
11110001
11110110
11110110
11110111
100
1010
11111010
11111100
100
11111111
11111111
11111001
0
11111101
0
11
1
101
11111111
0
110
110
11
101
1
0
11111010
11110111
11110101
11111011
11110110
11111111
10
1
11111001
11111111
10
11111001
11101100
11111000
11111010
11111010
11111011
11111110
0
10
11111100
11
1010
1001
11
11
11
11111111
11110111
11110111
1
11111111
11110011
0
11111010
11110111
0
1
0
11110111
11110001
11110101
11111001
11111000
11111010
11111101
0
11111100
11110111
1
1001
101
0
11111111
11111100
11111000
11110101
11111010
11111010
11111100
1
11111011
11111001
11111011
1
111
0
11111010
11110111
11110111
11111101
11111000
11111001
11111000
11110111
11110101
11111001
11111110
10
0
11111110
11111010
11111011
11111011
11111101
11111100
100
100
10
11110110
11111011
11111111
110
101
11
10
11111110
11111101
0
11111010
11111010
11110111
11110101
11110110
11111011
0
0
11111010
11110101
11111010
11111100
11111110
111
11
10
101
11111110
11111101
11110011
11
111
0
100
101
11111101
101
1
1
11111101
11111101
11111000
11110111
11111001
0
11111001
11111010
11111010
11111011
11111101
11111111
11111101
0
11111101
11111111
11111110
101
100
110
0
11111010
1
11111110
11111001
11111101
0
1
11111100
0
11111100
11111110
11111101
11111100
11111110
11111100
11111111
0
0
0
0
11111110
10
11111010
0
0
101
10
10
100
0
11111100
11111001
11111000
11111110
0
11111101
1
11111111
11111110
11111110
0
11111110
11111100
11111110
11111111
11111101
0
0
0
11111100
11111000
11111101
11111110
11110111
11111010
1
11
1001
11111011
11111011
11111110
11111110
11111111
1
10
11111110
11111011
11111100
0
0
11111101
11111001
11111010
11111011
11111110
0
11111110
11111010
11110110
11110111
11
11111110
11111010
0
0
110
0
11111001
1
11111010
0
0
10
11111110
11111011
1
10
11111111
11111111
10
11111101
1
0
0
11111011
11111110
11111000
11111001
100
1100
0
0
1
1100
111
11111101
100
111
100
1
0
0
11111110
0
0
0
11111011
11
0
110
101
11111111
11111100
11111110
11110101
11111100
11111001
1
1
1
0
10
11111000
0
0
1
1010
1001
1011
1110
1111
10101
1001
101
111
1000
1000
111
11
101
11111111
11111101
11111111
11111110
11111101
10
0
0
0
0
11111110
11110010
11110011
11110001
11111110
100
101
1010
111
11111111
101
1011
1111
10000
1111
1101
11
0
11111011
11111101
11111101
11111101
11111111
1
0
0
0
0
11111111
0
0
0
0
0
11111110
11110110
11111111
11111110
11110111
11111100
11111111
11111100
1100
111
11111000
11110110
11110110
11111110
10
0
0
0
0
